[PAD]
[UNK]
[CLS]
[SEP]
[MASK]
!
"
#
$
%
&
'
(
)
*
+
,
-
.
/
:
;
<
=
>
?
@
A
B
C
D
E
F
G
H
I
J
K
L
M
N
O
P
Q
R
S
T
U
V
W
X
Y
Z
[
\
]
^
_
`
a
b
c
d
e
f
g
h
i
j
k
l
m
n
o
p
q
r
s
t
u
v
w
x
y
z
{
|
}
~
¡
¢
£
¥
§
¨
©
ª
«
¬
®
°
±
´
µ
·
º
»
¼
½
¾
¿
À
Á
Â
Ã
Ä
Å
Æ
Ç
È
É
Ê
Í
Î
Ñ
Ò
Ó
Ô
Õ
Ö
×
Ø
Ú
Ü
Þ
ß
à
á
â
ã
ä
å
æ
ç
è
é
ê
ë
ì
í
î
ï
ð
ñ
ò
ó
ô
õ
ö
ø
ù
ú
û
ü
ý
þ
ÿ
Ā
ā
ă
ą
ć
ĉ
Č
č
Đ
đ
ē
ĕ
ė
ę
ě
ĝ
ğ
ġ
ħ
ĩ
ī
ĭ
İ
ı
Ł
ł
ń
ņ
ň
ŋ
Ō
ō
ŏ
ő
Œ
œ
ř
Ś
ś
ŝ
Ş
ş
Š
š
ţ
ť
ũ
ū
ŭ
ů
ű
ź
Ż
ż
Ž
ž
ſ
ơ
ư
ǎ
ǐ
ǔ
Ș
ș
ț
ɐ
ɑ
ɔ
ə
ɛ
ɡ
ɣ
ɨ
ɪ
ɲ
ɾ
ʁ
ʃ
ʊ
ʒ
ʔ
ʰ
ʲ
ʷ
ʻ
ʾ
ʿ
ˈ
ː
́
̃
̞
̪
̯
͡
Α
Β
Γ
Δ
Ε
Η
Θ
Ι
Κ
Λ
Μ
Ν
Ο
Π
Ρ
Σ
Τ
Φ
Χ
Ψ
Ω
ά
έ
ή
ί
α
β
γ
δ
ε
ζ
η
θ
ι
κ
λ
μ
ν
ξ
ο
π
ρ
ς
σ
τ
υ
φ
χ
ψ
ω
ό
ύ
ώ
А
Б
В
Г
Д
Е
Ж
З
И
К
Л
М
Н
О
П
Р
С
Т
У
Ф
Х
Ц
Ч
Ш
Э
Ю
Я
а
б
в
г
д
е
ж
з
и
й
к
л
м
н
о
п
р
с
т
у
ф
х
ц
ч
ш
щ
ъ
ы
ь
э
ю
я
ё
і
ї
ј
ћ
қ
ң
ү
ө
ա
ե
ի
ն
ո
ր
ְ
ֲ
ִ
ֵ
ֶ
ַ
ָ
ֹ
ּ
ׁ
א
ב
ג
ד
ה
ו
ז
ח
ט
י
ך
כ
ל
ם
מ
ן
נ
ס
ע
פ
צ
ק
ר
ש
ת
ء
آ
أ
إ
ئ
ا
ب
ة
ت
ث
ج
ح
خ
د
ر
ز
س
ش
ص
ض
ط
ظ
ع
غ
ـ
ف
ق
ك
ل
م
ن
ه
و
ى
ي
َ
ُ
ِ
ّ
ْ
پ
ک
گ
ی
ं
अ
ए
क
ग
च
ज
ट
ड
ण
त
द
ध
न
प
ब
भ
म
य
र
ल
व
श
स
ह
ा
ि
ी
ु
ू
े
ो
्
ই
ক
গ
জ
ত
দ
ন
প
ব
ভ
ম
য
র
ল
স
়
া
ি
ী
ু
ে
ো
্
க
த
ப
ம
ர
ி
ு
்
്
ก
ค
ง
ด
ต
ท
น
พ
ม
ย
ร
ล
ว
ห
อ
ะ
ั
า
ิ
ี
เ
่
้
་
ག
ང
ར
ོ
က
င
စ
တ
န
ပ
မ
ယ
လ
ာ
ိ
ု
ေ
့
း
်
ြ
ა
ბ
დ
ე
ვ
თ
ი
კ
ლ
მ
ნ
ო
რ
ს
უ
ქ
ხ
ង
ម
រ
ស
ា
្
ḍ
ḗ
Ḥ
ḥ
Ḳ
ḳ
ṁ
ṃ
ṅ
ṇ
ṛ
ṣ
ṭ
ẓ
ạ
ả
ẽ
ế
ễ
ệ
ị
ọ
ố
ồ
ộ
ớ
ỹ
ἀ
ἄ
Ἀ
ἐ
ἑ
Ἐ
ἰ
ὀ
ὁ
ὄ
ὐ
ὰ
ὶ
ὸ
ῆ
ῖ
ῦ
ῶ
‐
‑
–
—
―
†
‡
•
…
‰
′
″
⁄
€
℃
ℓ
™
←
↑
→
↓
↔
⇄
⇆
⇒
∀
∆
∈
−
∗
√
∞
∧
∨
∴
≈
≠
≡
≤
≥
⊕
⋅
─
│
└
├
▄
█
░
■
◊
●
♀
♂
♗
♘
♠
♦
♭
♯
⟨
⟩
、
《
》
「
」
〜
あ
い
う
え
お
か
が
き
く
け
こ
さ
し
じ
す
せ
た
だ
ち
っ
つ
て
で
と
な
に
の
は
ひ
へ
ま
み
め
も
よ
ら
り
る
れ
ろ
わ
を
ん
ァ
ア
ィ
イ
ウ
ェ
エ
オ
カ
ガ
キ
ク
グ
ケ
コ
ゴ
サ
ザ
シ
ジ
ス
ズ
セ
ソ
タ
ダ
チ
ッ
ツ
テ
デ
ト
ド
ナ
ニ
ネ
ノ
ハ
バ
パ
ヒ
ビ
ピ
フ
ブ
プ
ボ
ポ
マ
ミ
ム
メ
モ
ャ
ヤ
ュ
ョ
ラ
リ
ル
レ
ロ
ワ
ン
ヴ
・
ー
一
三
上
下
世
中
主
之
二
五
井
京
人
代
伊
会
伝
信
光
全
八
公
内
出
刀
前
北
区
十
南
原
口
古
合
吉
名
周
和
四
国
國
土
地
城
士
夜
大
天
太
女
子
字
学
安
宮
家
富
寺
小
少
山
岡
島
崎
川
州
巻
市
帝
平
年
心
忍
忠
恋
愛
成
手
拳
文
新
方
日
明
星
春
時
書
月
朝
木
本
李
村
東
松
林
楊
歌
正
武
民
気
水
江
沢
治
泉
法
津
流
海
清
漢
火
無
物
王
生
田
画
白
皇
真
石
社
神
福
空
线
美
者
自
花
華
藤
行
術
西
見
語
路
通
道
郎
郡
都
野
金
鉄
長
門
電
青
音
風
館
香
馬
高
魔
黒
龍
교
대
도
시
주
한
𝖺
𝖽
𝖾
𝗂
𝗆
𝗇
𝗈
𝗋
𝗌
𝗍
𝗎
🗎
##y
##ö
##v
##ä
##e
##n
##k
##a
##r
##t
##i
##æ
##f
##l
##s
##c
##í
##m
##p
##ř
##o
##b
##g
##d
##D
##W
##S
##h
##â
##O
##H
##ç
##ã
##x
##u
##w
##z
##ó
##ı
##治
##ǔ
##è
##A
##M
##G
##E
##é
##風
##É
##V
##C
##L
##á
##j
##F
##R
##ń
##I
##P
##U
##´
##q
##T
##N
##松
##市
##ô
##B
##ב
##ר
##מ
##ו
##י
##X
##ê
##Q
##ṣ
##û
##木
##Z
##õ
##Y
##ü
##ñ
##à
##ل
##ا
##░
##█
##▄
##а
##с
##к
##з
##ы
##ֵ
##ּ
##ת
##א
##ל
##ש
##ה
##ë
##š
##Í
##J
##K
##Ç
##泉
##ώ
##μ
##ο
##ς
##ḳ
##נ
##ִ
##ם
##в
##и
##о
##м
##п
##н
##я
##ワ
##ー
##王
##ж
##й
##ा
##ज
##म
##ह
##ल
##ș
##ú
##ă
##ț
##会
##社
##ß
##å
##ō
##υ
##ν
##α
##γ
##ω
##ή
##キ
##チ
##ク
##シ
##テ
##ィ
##τ
##ρ
##ι
##ý
##Á
##ā
##ℓ
##術
##ć
##č
##さ
##ん
##と
##一
##ż
##ε
##φ
##ῶ
##ṇ
##ə
##ラ
##͡
##ʃ
##ʰ
##̪
##ː
##κ
##ί
##ª
##Õ
##ر
##ف
##و
##ナ
##ズ
##マ
##ン
##ĕ
##ì
##ố
##у
##́
##т
##і
##л
##ь
##ą
##η
##ł
##р
##文
##е
##た
##な
##い
##ɔ
##太
##ş
##ù
##朝
##ž
##ֲ
##ְ
##ָ
##ī
##美
##物
##館
##路
##イ
##フ
##ァ
##ハ
##リ
##д
##ћ
##г
##ũ
##ά
##ỹ
##ि
##न
##्
##ध
##ु
##º
##Ó
##Â
##έ
##ø
##ɐ
##ˈ
##ʲ
##À
##ק
##צ
##国
##Ê
##ن
##د
##ز
##ח
##ֶ
##פ
##ַ
##𝖾
##𝗆
##𝗂
##𝗍
##𝗋
##𝗈
##ג
##ب
##ո
##ի
##ï
##ד
##Ã
##ц
##っ
##高
##く
##ū
##ð
##島
##へ
##忍
##ò
##ξ
##Ñ
##σ
##λ
##̯
##β
##ه
##ɾ
##န
##တ
##လ
##ေ
##း
##ိ
##ု
##င
##်
##က
##ြ
##子
##拳
##ɪ
##ע
##б
##大
##天
##学
##χ
##沢
##כ
##ך
##ي
##س
##Ö
##ό
##π
##ś
##の
##ム
##İ
##ǐ
##ớ
##ч
##し
##ē
##之
##明
##郎
##地
##流
##ک
##野
##ス
##ミ
##レ
##田
##新
##ة
##山
##小
##字
##ě
##ج
##ǎ
##ш
##デ
##ビ
##ュ
##周
##年
##を
##え
##ζ
##ę
##ğ
##光
##ض
##ع
##ャ
##プ
##め
##み
##¨
##∴
##า
##ท
##ย
##Ú
##ি
##ত
##র
##長
##อ
##้
##ว
##น
##ี
##่
##ด
##ύ
##海
##出
##ĭ
##্
##ন
##ী
##に
##き
##て
##ق
##ط
##ĉ
##代
##ṁ
##™
##ニ
##도
##œ
##ら
##日
##本
##崎
##和
##한
##Ρ
##人
##−
##х
##ן
##り
##ъ
##К
##ま
##で
##ッ
##全
##ṅ
##林
##五
##ὰ
##ю
##М
##ġ
##گ
##ა
##რ
##ს
##უ
##ლ
##დ
##ס
##ט
##自
##区
##う
##こ
##ろ
##ゴ
##ṭ
##ド
##ロ
##ė
##は
##ひ
##道
##郡
##つ
##ி
##த
##்
##ு
##ம
##だ
##ŏ
##δ
##ե
##上
##方
##ト
##대
##교
##州
##ň
##ɑ
##星
##ẽ
##̞
##ḥ
##ņ
##ブ
##コ
##ك
##ت
##金
##°
##皇
##女
##る
##ṃ
##西
##李
##م
##ص
##ح
##ἰ
##前
##ダ
##ɛ
##東
##京
##î
##θ
##ё
##ј
##ŭ
##ʻ
##♭
##ノ
##夜
##ư
##ő
##Ô
##川
##र
##ネ
##カ
##名
##ׁ
##қ
##ḗ
##→
##花
##ش
##神
##𝗎
##ế
##ქ
##ე
##ग
##त
##े
##ث
##士
##國
##時
##غ
##ى
##ی
##च
##タ
##ピ
##ئ
##э
##½
##ả
##ὐ
##ῦ
##𝖺
##す
##も
##生
##月
##津
##ツ
##ф
##य
##ो
##ं
##व
##ण
##ट
##ी
##か
##ာ
##ပ
##Θ
##江
##ſ
##ɡ
##ր
##ル
##þ
##電
##気
##鉄
##ŋ
##َ
##ม
##া
##স
##щ
##ʒ
##ে
##手
##ψ
##أ
##ɨ
##ア
##古
##ะ
##者
##ウ
##ז
##ů
##श
##स
##通
##ร
##ź
##華
##世
##エ
##ヴ
##オ
##ὸ
##С
##サ
##ガ
##க
##ர
##れ
##ệ
##南
##ɲ
##ʊ
##少
##ʾ
##ῖ
##ն
##ա
##®
##城
##시
##𝗌
##福
##忠
##ء
##ÿ
##У
##Л
##្
##ង
##រ
##伝
##信
##巻
##¬
##家
##द
##̃
##ʁ
##藤
##ـ
##ُ
##ェ
##്
##刀
##村
##馬
##合
##画
##မ
##့
##土
##🗎
##都
##グ
##♯
##ṛ
##¢
##香
##が
##中
##心
##岡
##ү
##ั
##ล
##門
##ก
##ิ
##安
##±
##ザ
##ْ
##原
##春
##प
##Ø
##თ
##ხ
##ң
##ِ
##ต
##ค
##パ
##ʷ
##歌
##ヤ
##バ
##क
##𝗇
##音
##法
##ֹ
##ソ
##ジ
##成
##語
##მ
##ო
##ი
##平
##Ο
##Σ
##ง
##线
##寺
##セ
##よ
##帝
##四
##せ
##武
##ţ
##ბ
##北
##主
##ए
##ब
##井
##三
##ḍ
##宮
##ম
##ু
##ĝ
##け
##わ
##お
##ち
##ɣ
##真
##下
##書
##ョ
##正
##ヒ
##Н
##Т
##ʔ
##ť
##კ
##Ü
##ვ
##Î
##口
##龍
##Р
##Ω
##Κ
##Ι
##ạ
##あ
##ো
##ব
##ា
##ម
##無
##∈
##Α
##Π
##Η
##ボ
##ʿ
##ὶ
##য
##দ
##ῆ
##آ
##ক
##石
##ө
##เ
##伊
##ọ
##إ
##ظ
##ू
##È
##ّ
##民
##đ
##প
##二
##พ
##ห
##Φ
##モ
##↑
##水
##О
##भ
##ই
##内
##ड
##پ
##ĩ
##В
##Д
##見
##│
##恋
##吉
##ნ
##়
##公
##ồ
##ག
##Å
##♦
##魔
##じ
##ἐ
##×
##Μ
##∨
##∧
##空
##メ
##白
##十
##ї
##خ
##ħ
##ケ
##ị
##ང
##清
##주
##八
##Δ
##Æ
##ོ
##行
##စ
##ស
##𝖽
##♠
##ἄ
##ভ
##ப
##≠
##ল
##漢
##≤
##∀
##ơ
##富
##ű
##Ε
##Э
##П
##গ
##Ф
##ẓ
##Ş
##Τ
##ယ
##©
##ễ
##Χ
##Ν
##ŝ
##Ä
##अ
##⊕
##∞
##ộ
##Š
##জ
##µ
##Œ
##Β
##愛
##⋅
##黒
##З
##ར
##火
##ポ
##≡
##А
##Č
##Ł
##青
##Λ
##∗
##⇒
##Г
##И
##↔
##ὀ
##Б
##Х
##Ю
##Я
##Ш
##Ò
##↓
##£
##Ч
##─
##Ц
##Ō
##€
##Е
##←
##楊
##Ж
##Γ
##ὁ
##Ḥ
##≥
##⁄
##Ψ
##Ž
##ἀ
##¥
##Ā
##Ś
##∆
##¾
de
##ra
##nt
##os
##es
##er
##or
##as
##ad
##is
##ar
co
##ia
##ão
##ic
##nd
##al
##ent
##ro
##in
##id
##ma
##el
##it
do
##re
com
##io
##st
qu
da
se
##en
em
##am
##em
##an
##il
##ção
que
##ol
##ri
##on
##ara
##ul
##ta
##ei
no
##at
##ndo
##nc
##ou
##ado
##ec
##iv
##ente
##gu
um
uma
##qu
##im
##ut
para
##et
##ist
na
por
##ica
est
su
fo
##ant
re
##om
##idad
##od
##oc
##ais
##era
##ada
pro
##us
con
##ac
##un
##ha
##ras
##le
as
es
##res
os
##ões
##te
##iz
como
##ig
foi
##ed
##ação
##idade
in
##ura
##ion
pel
##to
##ho
dos
ex
##po
##ido
##ento
al
##av
##ir
at
##eiro
##ab
##ico
des
##so
##ados
##ito
##um
##ros
##ip
##ov
an
##ém
ap
##og
##ções
##do
##ria
##nde
##ai
##ag
##ap
##ob
##ando
##nte
##ram
##ores
ao
##se
##art
ent
per
##if
##he
##ur
mais
##de
##ial
##ncia
ser
##mente
##eira
Em
##rim
##rio
sua
##ida
##op
##ev
##ern
cont
tra
##amb
ou
for
##ns
##ista
##ot
das
##ru
Est
##nda
não
##mp
ac
##ça
##ens
##da
##ont
ter
##me
##mo
pr
##la
seu
##eu
##ers
##eg
##ub
mu
int
##ias
esp
tem
##eb
comp
##co
##ez
prim
##ass
##tu
Al
##rasil
##est
ar
##man
##ambém
##ora
##ios
##ência
##ing
##ional
##amente
out
##adas
##ess
##ulo
também
##éc
##ina
##du
pela
gra
##ib
##emb
##orn
esc
##ian
##az
##ui
rec
entre
pelo
##ês
Com
##ít
pod
##icos
segu
res
##ve
reg
pos
fil
##enc
##pe
##icas
Un
Mar
##amento
Es
part
Por
são
##va
##idos
sob
##vel
##rit
par
en
##go
##eri
##ião
##íc
##anto
##ino
##ca
el
##ári
ele
##and
##unic
am
of
##íp
##ire
##que
##ário
ab
##inc
##imento
##ud
dis
##ador
ob
pre
ass
Brasil
imp
##entes
anos
te
##ade
##esso
##und
era
ant
##ís
##ch
##inha
##rig
##tiv
##aliz
No
##ira
As
##ição
##orte
mas
##pl
mar
##aram
##pres
tod
##lia
##idades
mes
##iu
##hec
cons
ad
São
##ast
##ranc
Os
##opul
Pa
cl
##ima
##ult
##ós
inc
##pos
Ch
##ço
nas
##ran
##min
##for
##entos
nome
car
pres
##erra
popul
mai
##ert
##almente
##ava
Ar
cidade
cor
##ela
##unicíp
##ôn
##ér
##embro
sobre
##sa
nos
##ust
##itu
Con
##ero
##gra
##ja
##vol
cas
##eral
##int
nov
forma
##ivers
col
##ato
##end
##ard
##ân
##ano
const
Re
ch
dest
até
##agem
id
In
##esa
##antes
jog
De
##son
foram
##aria
mil
##ter
princ
vez
pass
##bal
##up
##ign
##anh
##ort
##itos
Car
##enas
##ória
##elh
loc
##erc
rel
pol
##anç
seus
cam
An
##istas
cap
##bl
##ares
enc
or
##ín
##ita
hab
dire
ano
##éri
torn
maior
Jo
The
##lu
conc
##iss
Gu
##inal
conhec
##ase
##uro
onde
prov
##unt
##rea
##ários
##acional
##ific
Se
ind
##aix
oc
##inh
##adores
##eiros
km
##urante
##ana
princip
primeiro
##este
##éd
##ivo
##rá
##ord
municíp
dec
algu
poss
##idas
##ante
##ug
qual
desc
##inda
contra
ag
##erior
##pois
sendo
##ie
Rio
##col
pl
tempo
Am
##ost
##ismo
pa
##ét
St
##mas
##elo
##fer
hist
sub
##ema
fam
aut
quando
us
Esp
mod
##ce
inter
##és
parte
Qu
##ga
comun
trabal
##rada
Cam
trans
##overn
##ix
##isão
##fe
dist
faz
##ich
região
Ant
##anha
tr
mesmo
##óp
está
##orre
##ús
##át
município
sem
##ite
##jet
Sant
##volv
##gua
área
##oma
dois
##iliz
##érie
Cl
##rav
primeira
##icial
suas
cent
Na
##uc
Pro
##ge
pode
Portu
##ral
Fo
Ap
##ua
grande
##imo
##úbl
##ebol
aos
##rito
che
dia
##ór
##aneiro
##ual
inf
##iam
ver
brasil
desen
##ças
##her
Paulo
##lt
ext
##eric
ba
du
##itar
##iais
ainda
outros
##utebol
país
##rib
##ell
##ília
##iva
cer
orig
produ
Le
depois
##idera
durante
Ma
##rad
ca
##ena
##unc
vol
##gre
Para
já
##vi
muito
##eve
##gl
Gra
##ntes
##pre
##ubl
habit
##ne
##of
##êm
ela
cham
gu
espec
govern
##dio
apenas
met
##elho
##gal
lanç
##endo
##pera
##ill
un
pesso
##bo
##tiva
fic
Nov
encont
##oca
##inho
equ
##erg
##atro
##ício
af
polít
##resent
Estados
##iano
estado
##ola
##gues
partic
##anc
proc
##icação
##ele
série
apresent
Par
##ital
##ine
inst
##erv
após
##ações
po
person
art
dev
ut
me
##eram
##ncias
##mes
dif
##ón
fre
##íst
##gan
##color
##ível
##ás
Des
div
##gcolor
bgcolor
liv
##tor
El
séc
Fil
gru
pe
##osa
ed
Or
Unidos
##ól
##idente
come
fund
##II
população
##enh
então
alt
##ular
utiliz
##na
três
##árias
Ex
##con
Portugal
habitantes
proví
##olog
##odo
##rat
##ária
##eiras
##úm
mat
##indo
cr
##igo
def
sup
At
mús
inv
##itas
##íd
men
poder
##uto
Jos
fal
Co
##atura
incl
realiz
##veis
##orta
##hos
hav
##ultura
Bar
##ay
lev
##gem
##forma
##inas
lon
##tal
desenvolv
sist
constru
##iana
##lb
cond
##riz
província
ret
exp
Soc
às
av
##je
##rou
pont
Int
##elhor
##FA
tinha
##ipe
ma
Ale
hom
##ea
sol
dez
Ass
cri
século
considera
##ório
##present
portu
receb
Foi
sido
##pa
##ôm
##ense
##has
Ele
todos
filme
##ric
##ável
##ração
##igu
##ril
soc
##ula
suc
duas
ir
##ila
##ên
cria
americ
man
pelos
Lu
cheg
franc
min
##cional
##osto
família
Col
##ização
final
##cio
##ental
história
can
the
Sul
##elec
##all
##ons
difer
exist
##ube
is
particip
cin
méd
Pr
##ências
##empl
segundo
disp
##minist
ép
Univers
Franc
conf
##rut
##mit
med
##quer
##ério
##esse
##ulos
##uta
desde
prop
##ron
##iga
últ
prof
##ições
##oria
di
##ide
##rado
##segu
ev
Man
##emente
##avam
##tos
##rop
Ac
álb
##ow
próp
outras
conv
##za
##ionais
Fl
##atal
##ice
Este
este
tendo
##óg
localiz
Ent
época
##uma
##unto
Ab
represent
La
Janeiro
atu
##quanto
assim
publ
##xo
vezes
atrav
base
##ivos
##eria
##esta
empres
##ona
José
começ
##rar
##oss
sim
neg
bem
rep
déc
##iado
João
##ogo
partir
grupo
cerca
apar
pal
teve
##ráf
Ad
form
principal
Cor
divers
fe
##ry
Ed
perí
##udo
##ies
val
##dade
Sal
pou
##eto
set
le
banda
oficial
and
Segu
##itui
##são
Fran
##erto
tel
lug
##ilidade
##ologia
administ
vida
##ocal
Um
##ack
núm
Espanha
contin
local
Cast
personagem
Grande
mundo
##jo
ins
cat
##tas
públ
##rica
##rev
brasileiro
vis
futebol
##greja
prod
##él
Santa
amb
##ik
##oso
portugu
Is
##red
eram
exempl
álbum
il
antes
geral
Ba
##ância
estava
Ol
##cos
##én
havia
alguns
##grama
##ços
##eração
##ure
##ilo
através
##uí
##iar
##ach
além
cada
refer
fin
conhecido
##orr
pap
##edade
##our
importa
norte
Cas
sistema
Maria
podem
##eros
emb
pes
##peon
##reira
Cent
vários
##osta
escrit
pessoas
##emas
##ulho
período
And
Mo
##cia
governo
##iou
desta
##ime
Sp
Nova
Bo
grav
mud
tít
jogo
En
##mos
##íl
Per
pequ
Te
##undo
##ál
##les
início
sa
cu
##ença
Carl
Val
nasc
##eno
ho
inclui
Pal
##rist
##óri
organ
##tura
cant
intern
##ang
##uman
produz
##no
##ód
Ped
dep
##dem
melhor
Imp
##ton
##ndes
##ordo
ped
##pend
Out
deix
##unho
##inte
Tre
Pl
escol
apro
##ret
ep
tex
##ba
##AR
vers
##ate
##orro
econ
##NE
##arac
cur
fro
##ulher
##ical
espéc
especial
##isco
##ep
align
ún
Cop
##ubro
##isa
Cal
##peonato
II
bar
Euro
fez
##íf
##eta
##ock
Comun
tornou
lugar
##uz
música
##icamente
resp
estab
##tes
Ver
enquanto
pert
inic
número
Tra
Can
##imentos
Cap
tar
novo
sign
##iol
Estado
Th
vo
##ução
milh
estud
rev
Nacional
##dos
##issão
exc
##enta
##ecess
##ruz
##ind
##lo
##ece
mov
##ever
##ete
##rg
só
várias
Star
Universidade
consegu
##eceu
apo
caus
##ipo
##ifica
Reg
##th
ve
sul
##ática
nova
##ím
Sil
exemplo
pov
esta
##rb
há
##ânico
num
Ro
passou
##ari
programa
presidente
et
trabalho
Pol
##esar
eles
década
projet
Rec
##ise
##ins
rei
nacional
Ne
##nto
##ress
Cat
##car
##tado
##iação
##dor
pertenc
todo
sal
lín
tot
##elas
expl
##au
quatro
tur
##ãos
tre
aqu
##igos
algumas
##anos
estabelec
##iram
devido
##agens
Nos
##ilh
##adr
possui
mus
##ok
##ama
irm
public
situ
##entar
gol
##itor
subst
muitos
territ
mon
fl
Joh
produção
Após
##entemente
Lis
der
##aixo
##aracter
fregues
##omin
##ht
Min
##ornal
Uma
op
Futebol
##iente
isso
Guerra
pois
Ge
sof
estão
acordo
dezembro
filho
ta
##reg
capital
##duz
Rob
Sua
entanto
lhe
mant
##let
meio
##ndia
objet
##amentos
im
Part
##orm
##érica
ro
fim
trabalh
som
##aro
outro
fac
telev
autor
##inos
marc
##tou
##enho
lit
rio
##xim
necess
contro
Rep
Carlos
distrito
arqu
##ey
##ensão
##tar
##resc
##sos
descob
Ag
produt
##erais
prec
seja
Mus
lig
##ído
janeiro
##asse
caracter
##dic
ital
Municíp
##emin
##ival
##boa
##âm
pai
França
Igreja
ocorre
##ient
viv
##ingu
ingl
título
acab
lib
temporada
longo
decl
Lisboa
##ída
jogos
venc
##ificação
fun
alem
casa
##fia
Uh
Rod
Copa
ativ
Ra
##gens
class
atriz
comuna
lado
##enção
Lo
via
##erta
##écn
mulher
##riv
grandes
den
Sup
Gl
Sh
##cul
morte
Ta
tarde
todas
ast
##aval
cultura
dent
recon
Cont
LI
defin
servi
##ques
seria
Sa
##adora
##ública
human
dem
lo
##ativ
diz
Go
menos
desenvolvimento
novembro
Mat
Intern
##iro
##ntegra
dens
Local
##iões
##antas
##ane
Socorro
##para
julho
opera
comerc
água
##evereiro
pra
##ff
##nça
administra
Entre
televisão
estad
Porto
##land
março
povo
##embros
continu
pró
Bra
##tivo
clube
maio
##unicip
##ver
##ier
##duc
gen
quais
cal
##das
segunda
hoje
dias
result
principais
LINE
setembro
LINEAR
outubro
papel
most
##artamento
##ph
##uv
terc
Como
Ca
influ
##ago
Localidades
epis
cab
##ze
##ativa
la
Trek
incluindo
Pedro
sent
começou
mot
milhões
##via
##are
Norte
popular
It
Hist
Fed
Mil
ata
chamado
abril
##ong
conj
##fic
##tion
junho
livro
##manha
bas
Po
Il
lim
fazer
Cons
##ndepend
del
aj
Uhura
##eriormente
##sto
equipe
conqu
##gio
##iel
obra
Av
volta
língua
semp
##sas
##ônio
sempre
origem
deter
agosto
interpre
##omia
sucesso
maioria
comb
Municípios
densidade
fer
Inst
tal
coma
numa
tec
guerra
##FF
uso
##ore
##uras
Campeonato
##tanto
ens
Ter
##sia
Liv
leg
##íveis
##ônia
##rem
ganh
junt
cir
sede
pelas
##form
##érc
Pra
qualquer
##quia
obras
freguesia
ficou
##ades
tipo
Pres
relig
##ológ
afir
Sc
sec
inclu
Ao
disc
##eses
##atos
perman
média
muitas
América
seguinte
ocup
versão
##omp
##omb
##ala
populacional
##isc
político
Fre
processo
mesma
má
política
Mart
##iedade
diferentes
TV
##aturais
aum
##ãe
americano
##ardo
frequ
ten
Francisco
##ulas
toda
FA
prom
Wil
Nich
##one
##ác
caso
jov
Paul
##iada
Além
##ke
termin
##aixa
##ribui
##ris
center
##gas
Filmes
##inado
Durante
Alemanha
integra
pat
real
##val
##iência
Segundo
##etr
carreira
Seu
Jap
estre
Jog
ima
tent
Fer
##itude
porém
##áb
##ome
##unicipal
tanto
##feito
lat
coloc
comum
##tação
##nce
Quando
Comp
##áveis
empresa
##uel
##enso
estrut
cinco
bo
##abora
principalmente
primeiros
dirig
John
construção
##íg
Vila
atual
ra
##orge
##inhos
países
embora
centro
Tem
##ecer
##ália
XV
Su
Reino
post
Mont
##acion
técn
amp
Du
##gue
##rac
##eza
##fo
original
regist
##êmio
relação
empre
##erial
##ede
cresc
Fern
bat
Const
pouco
Crist
jornal
corpo
português
##radas
determin
##ki
##ança
Hen
Sch
to
San
Rev
recebeu
##lio
total
República
##rente
conhecida
##unca
##por
##essa
##ren
fevereiro
##rum
importante
termo
ref
crít
##inação
quase
Ph
##old
Comunas
Mac
brit
compos
camp
público
Santo
##yl
Europa
front
Estende
##etro
##reas
vit
##icações
##ército
Sou
##ística
seman
##dução
palav
##reto
##xa
Ela
##ect
##gar
##imos
##elos
For
constitu
ponto
##uda
quem
social
metros
Cruz
mãe
##erno
quanto
Mas
Af
Gre
##inhas
tro
Alb
lançado
disso
administrativa
intera
##izado
Esta
##ick
func
obs
compet
Dire
Nas
##urg
respons
derro
##ses
cul
##ecut
nav
##ity
Med
Mund
##ânt
esse
cha
permit
##ustria
ide
##ética
reconhec
Ang
dom
denomin
##rag
##órias
usado
Mon
cob
##pira
##gram
nunca
design
pontos
ating
encontra
##ka
merc
vend
militar
essa
##ães
informa
Depois
Ingl
##ág
##ude
##encial
##ânia
Esc
##iados
equip
apl
brasileira
##rados
chamada
outra
##adamente
##ight
último
francesa
Dav
espa
espécies
not
dentro
Ben
##sp
##ituição
Ob
projeto
Be
roman
território
##vam
##bol
escrev
têm
##mara
departamento
conta
Bl
propri
Centro
linha
Pat
Também
sab
New
##áss
membros
##amp
##FAFA
FAFAFA
##eriores
femin
##eca
indiv
idade
chegou
decid
Lei
Mad
##ames
Her
Mal
Ste
estr
Ind
estilo
alc
er
##eae
independ
Mundial
##ley
próprio
##ificado
FFF
Japão
assum
##ádio
categ
US
##ux
histór
##eles
fora
Prim
##tante
diversas
bair
fica
##ícia
instal
maiores
##ler
junto
##ng
campo
deu
acont
##how
serv
Gr
##ót
Har
##íde
comunidade
##essor
simpl
##posição
localizada
##atural
anima
son
##obo
Não
considerado
##imin
Band
##ipl
super
doc
##nder
modelo
retorn
##eir
ator
rod
Me
deve
##ork
ficção
portuguesa
##iment
inglês
##ácio
her
criação
conjunto
texto
escola
Do
origin
elem
movimento
##ner
Sol
##gent
gên
##úst
##guas
Mag
##ash
Casa
tom
Instit
Rib
fato
##peão
geralmente
##ene
capac
diversos
##ónio
sexo
##tando
dados
ilha
##ânica
vel
Ordem
##ides
##ae
minist
branc
pesqu
##hia
Senho
francês
mont
##den
##erna
Lista
rem
##genh
bot
##ame
Senhora
##usão
expres
Clube
Terra
Atl
##ech
##ndeu
##ará
espanh
##ínio
seis
XI
cient
##ive
##edo
on
##edia
Gal
Cab
##maz
mom
posição
##ódio
Conc
cidades
Poss
próx
varia
assoc
##emia
Escol
relacion
impl
##aceae
edição
##ni
He
##mar
##eias
mora
Silva
Minist
própria
ge
Império
pint
quad
valor
##rang
exib
comercial
##odos
Mic
##enos
porque
##osp
União
Vol
Je
filmes
##ys
##ti
estrutura
data
Roma
##EE
Paris
##org
##ativo
##vo
##ace
##itou
##ovi
##bra
##ese
ofer
invest
deste
##ulg
Art
##ham
prote
##âmara
Luís
Lou
antiga
Itália
civ
Dom
gén
##ves
lei
Da
destac
##ísticas
ol
ident
significa
Partido
Federal
ado
elev
##into
mund
cel
diretor
##izada
##aterra
##zo
##frica
divid
Apesar
Faz
gal
Algu
surg
##arc
Nor
Santos
Mundo
África
##ini
##idência
##ols
##iver
##édia
funcion
band
Real
Naturais
##urso
Alex
sen
Minas
cinema
conte
##áp
perc
Inglaterra
##uns
##iqu
ace
Deus
terra
##arca
##orto
eleito
logo
ori
direito
filha
nível
criado
único
##ergia
##órios
arquit
##rom
##atalha
##ducação
Nossa
ne
Ast
áreas
bus
Melhor
comple
asc
fís
##intes
crist
euro
sur
##ãs
plantas
vir
meses
st
##íb
##estão
Mu
parc
futebolista
##esc
religios
pertencente
##eix
urb
interativa
##eter
##ger
nenh
Tur
simples
##otos
##ár
##inham
feito
tri
##una
inicial
Sim
##etros
Ho
modo
##per
Internacional
##icion
filhos
##itado
##ly
possível
Cha
##umb
Mais
Ser
##resso
##leg
##tamente
##aco
##fa
##ile
Govern
Pre
Henri
Jogos
somente
##ker
tradic
roma
##erador
##nia
##ceae
estavam
vari
econôm
única
Vi
Bat
Dan
morre
Oc
seguintes
##posta
docum
##apon
transp
Mor
antigo
##uais
Camp
fav
IS
Instituto
novamente
quar
##úde
##apa
Lond
Bel
espaço
grupos
sin
Lib
Acad
fase
##ilha
jogador
tempera
##augu
##ans
ordem
##eleção
Bro
conquist
função
##ertos
fronteira
japon
Possui
Assim
guitar
pot
br
let
mo
profiss
##pt
##ward
III
##orc
género
Antônio
##adeira
livre
superior
envolv
##isas
##aga
##ation
americana
##quele
probl
##ft
mand
##gramas
##ínc
nat
natural
direção
Gar
##pec
Club
enf
flu
presente
episódio
##der
fut
##jas
##osse
alemão
Assoc
##ritos
##ético
##cl
ren
Emb
trop
##ota
reun
emp
força
Ber
##III
##úc
XX
jp
##ía
formação
oeste
##liam
##enn
escritor
sing
importantes
última
##ientes
##ônica
##ex
##oro
novas
##anhia
resta
causa
##des
espécie
##ung
jpg
##arem
voz
##ático
##íder
organiz
##ibilidade
##ique
Pe
##ume
intro
Div
homens
aproxim
figu
padr
Tr
Ir
##amos
viol
arte
##ídu
irmão
##itora
Municipal
separa
revista
##ivamente
Unido
observ
mal
elei
gl
##ást
Tom
Escola
trein
disco
##erson
litera
##ment
homen
disput
ajud
##leo
bairro
Era
Vic
História
apoio
##turas
Portugu
##ble
energia
Cond
William
univers
adv
sex
presença
cargo
##ber
problemas
##ivas
rad
##utos
##ogra
italiana
municípios
dispon
##isto
EEE
voc
##ware
##ole
##tt
Char
##ural
novel
rot
##gn
##elha
colon
##urgo
quant
momento
Sec
##ney
aer
execut
Dist
Men
revol
##ipos
##tada
##nças
toc
##ya
Americ
forte
homem
##ianos
Ara
Manuel
##age
inaugu
financ
##tualmente
##vio
gráf
##tivas
##itura
##uss
##xico
categoria
##elmente
##unda
luta
Br
plan
##ogia
forn
prat
Gen
rede
Costa
##aran
##elle
favor
circ
Marc
pens
time
mundial
priv
Wal
Brasileiro
rap
##ith
##lay
##ortes
Gru
##rás
tiv
Ros
prot
promov
lar
forças
##ugu
Set
central
tenha
Mc
James
##ícios
semelh
interior
alcanç
líder
lidera
Met
Globo
Er
Oliv
flores
Ban
assist
posteriormente
livros
Gerais
conseguiu
terras
##berg
utilizado
Aust
Dia
possu
So
Mé
##entais
##rias
atualmente
Dou
##ille
##onel
igu
##be
process
norm
##lam
gera
##inheiro
Inf
conce
##ish
Nichols
gre
##sequ
##acial
sistemas
##ureza
##ider
##emp
Fernando
ensino
revel
mag
##ega
##ites
Bu
controle
personagens
eletr
disse
Robert
##alh
apesar
substitu
musical
##anta
frente
##ográf
Rei
tinham
Câmara
cast
Jes
##wn
botânico
resultado
canção
##uldade
internacional
My
sociedade
ganhou
fazendo
locais
censo
##qui
##isl
Geral
##éu
quil
##ance
##redo
vila
nº
anunc
novos
##igas
You
ampl
##ursos
regiões
##ândia
vitória
##ium
##gentina
##rança
Gén
acabou
trat
lingu
##icado
##itação
Luc
terceiro
##idense
##estre
explora
##estival
Prêmio
show
##alidade
Alexand
fol
corr
##AS
veloc
##grafia
nasceu
##enda
participação
trib
##entou
Dem
##ístico
afirma
##rando
menor
##éis
serviços
##nta
reb
Di
##mou
fed
acomp
##arina
baixo
destaque
mulheres
traz
cand
##gresso
levou
acesso
quer
campeão
##respo
primeiras
##arda
domin
##ulado
Just
Res
pag
direc
##itão
##gos
##dores
palavra
António
teria
mascul
##yle
alta
Dev
##gon
##ator
##icais
Bal
divisão
inspira
serviço
pais
milit
Brasileira
elét
destru
Cultura
altura
capacidade
bastante
mass
Já
estadun
científ
##olo
complet
México
comput
adap
tecn
##inta
##ércio
atra
concelho
Dep
indivídu
##rimento
lançamento
Fac
ef
##ife
Jul
##unha
apre
gênero
##iências
##ólica
membro
Presidente
##ld
agora
campanha
Pod
Hol
ger
indúst
##eio
ferro
##écia
partes
##ecimento
atividades
##aca
chefe
##acionais
##isões
estar
pequena
##ky
Jorge
exerc
XIX
Ha
##ulares
##itt
fosse
especialmente
Del
Ima
##olução
##jos
Embora
material
estim
Segunda
##iste
inicia
##ré
teatro
pessoa
##ativas
##ste
mercado
declara
##onst
comando
##mat
##ulação
tais
Record
##UA
direitos
dema
tão
##eras
##ori
##ark
Futebolistas
objetivo
Pen
##ribuição
Desde
Serra
trabalhos
cole
sequ
Essa
##oriz
Henrique
##rup
cláss
si
##ússia
ru
nomeado
import
##ég
instrum
##obre
China
##anas
assin
ação
zona
ocorreu
Ainda
##reve
det
##ídos
economia
responsável
Enc
elementos
##imas
cantora
alto
trad
##isso
##vent
perde
empresas
vice
Az
comand
Pi
##éria
produtos
Fund
color
##ferência
##ony
Argentina
mens
ambos
ocorr
mac
Sam
##BN
##hes
espera
ps
##iça
##onia
Jesus
Ori
Museu
igreja
##onso
Ja
particular
Fam
##rir
Bahia
##omas
jovens
David
##quim
gara
influência
bl
raz
##jam
Ten
##hi
##ispo
##icheiro
exército
rock
nem
##íncipe
##iguel
organização
anterior
##iblio
apresenta
Sy
Don
##ímp
cart
procura
lista
##eda
correspo
localizado
candid
##iciais
Ita
jovem
##ouve
Gon
test
mult
FI
##ks
lut
din
##ílio
estudos
##cionais
Branc
estadunidense
Castelo
Géneros
mét
obrig
feita
desse
##óm
romance
##orld
Academia
##rios
Leão
CD
Super
Wh
Cant
Hom
Ficheiro
EUA
##wa
##ertura
signific
teoria
País
##abilidade
Miguel
##itores
##reu
##óc
solo
##ioc
aproximadamente
##ett
leste
##tivos
vi
acred
##olis
##its
sete
Leg
interess
Paran
Neg
natureza
##etas
terceira
Sen
características
##ath
##anças
cabe
##NA
serem
Fa
##elhores
Sta
Jú
eu
luz
##tware
partido
##essão
##áticas
criada
abs
escrita
Anos
##ws
Augu
##ory
aband
velocidade
Dis
fab
All
Jac
Rodri
cust
animais
passa
dessa
York
esposa
Série
ouro
##ono
casamento
crianças
##idental
dese
ISBN
compl
índ
estú
engenh
##ott
##elações
Londres
dedic
War
##ágina
precis
##gress
marca
mem
text
produto
##gráf
abaixo
feminino
##riu
pad
princíp
escreveu
ocas
##uno
Bol
partida
Dec
##idamente
Conselho
##tica
Din
maneira
lançou
avent
To
Ju
superf
Pont
tornando
general
condado
cruz
verd
professor
Monte
Tim
Novo
##ius
Oliveira
##ustrial
Prov
britânico
##har
extre
Castela
rou
etc
Grupo
az
##istência
Eu
classe
##feitos
##ES
deixou
ministro
crim
desemp
casos
bal
##icl
##ofia
tornar
##ann
desf
arquitet
tradicional
Há
##ospital
##âne
sentido
rest
Ev
Mod
Tor
##arra
próximo
##ones
##ndendo
estudo
experi
mic
mec
##rico
##mea
##iter
Bas
##onas
morreu
from
Christ
veio
##lus
Mes
Eles
perm
so
governador
just
##ien
##ecido
Rich
Rede
tudo
##ement
Hel
##ania
ate
##enco
italiano
##ódios
reduz
aprov
crescimento
##aiu
acompanh
colabora
Trans
##identes
condições
Ven
pequeno
##ilar
##uração
mist
militares
##ecem
imagem
anim
##ortos
verm
pré
Ga
Atualmente
realizado
King
Liga
##mento
Cidade
Região
Social
##ood
##ence
fundam
##ics
homenagem
##bre
##ície
formato
Associação
##ington
##itada
taxa
World
jogadores
Alf
Vir
##illa
mês
classific
concent
Cin
##ps
Prof
##enças
escrito
##adá
##elhos
dar
Ouro
caval
Conf
Princ
Sab
##erdade
##ego
##rais
poderia
Fin
nomes
##edor
tempos
acima
portugues
##írito
confl
rus
vocal
melhores
Cristo
vig
##unos
Sub
edif
respec
Salv
respe
voltou
Rua
pen
##ônimo
##ave
estes
gols
##hael
Cur
inclus
Jer
tipos
metal
##ili
considerada
cél
##ove
vai
pred
Alguns
##áx
escolh
situação
##izar
cost
##sh
termos
oficialmente
##yn
ideia
##tual
Var
##blema
cultural
dig
prev
masculino
Festival
esquer
Central
Bill
mudou
Catarina
##aixas
Bern
neste
garant
##elação
##ribu
Sai
##oph
Jack
Tal
##ualmente
padrão
Tel
assass
Lat
participou
eletrôn
arm
##ídeo
##arou
##apar
SP
##ílias
elas
##ardim
formas
espanhol
Roman
existe
altitude
músicas
Esse
Enquanto
##OS
Miss
##óis
Parque
jur
oito
##rest
estas
##edores
Bon
longa
profissional
##mb
episódios
George
##eios
Anton
Paraná
IV
##af
informações
facil
fiz
Greta
Tro
Edu
Aut
escrav
Vit
##igra
autom
suced
trabalhar
sac
seguida
Ger
##abel
atividade
fundo
##icar
##edades
##volve
perto
vista
Porém
Vale
##ódigo
Condado
##ational
cuja
problema
mol
##amo
estação
aud
##itivo
##eth
juntamente
##my
san
##ídas
estados
##ald
chama
##ografia
qualidade
##olit
horas
Che
deles
imperador
Rock
prática
Ana
##ibliot
Exército
compositor
nesta
Nasc
comércio
publicado
saúde
transform
modern
##erva
Brit
fix
##óf
evol
importância
peças
turn
##forme
Michael
##lin
consum
style
ban
infant
interesse
##ello
Coma
recursos
##lata
Militar
##by
unidades
pública
existem
estadual
##feitura
altera
Ep
possuem
##orias
demonst
Afonso
##alização
eventos
Cou
diss
##atório
taman
Vas
##ior
##xima
##alo
Desamb
estrang
##nsa
##ue
exig
##rv
##cas
Dr
##ublic
##ford
Let
##rição
Flor
torna
Aqu
##guai
será
##ision
gradu
nor
dific
intit
produtor
ráp
capaz
##idro
altern
##way
perd
Qui
enfr
line
hon
desp
##itando
cujo
Direito
armas
compre
##oporto
pac
tropas
casas
abandon
##orque
##ling
temperatura
##etos
Portuguesa
dá
##mer
##elef
##ribuí
##ii
##osos
single
curso
entrou
plano
vem
campeonato
quím
conserv
##och
metade
Teatro
competição
ente
mor
Pereira
isto
Rússia
##usa
deriv
Isso
sens
deput
famoso
cantor
faixa
sat
usada
##edes
terminou
referência
##elig
##umin
Of
Governo
Abril
Bras
Pan
dado
crio
##iadas
Seleção
software
semanas
amor
##hão
prepara
##orial
##ímbol
##avelmente
entrada
funções
específ
indústria
inclusive
resol
##édio
tema
crit
prem
Gil
##round
Alegre
últimos
futuro
falta
back
##istem
criar
dra
quantidade
##hou
fundada
##éries
control
Pass
##ôs
produzido
aparece
tab
Aer
realizada
Primeira
portanto
canal
consequ
órg
Paulista
elenco
matem
pesquisa
##iza
##ven
##dios
##nos
##iliar
existência
transmit
iniciou
Canadá
batalha
contrato
##ativamente
títulos
Eg
##ij
Fel
##pas
##ordeste
Barb
IB
estúdio
anal
Amaz
##ten
noite
##cho
##órm
tratamento
unidade
##esas
##cel
indíg
conhecimento
##uri
##asso
##icada
recup
Jean
##tados
##omes
##osofia
médio
algum
ataque
educação
##ónoma
fluxo
Cel
amigos
##onte
Iorque
boa
canções
ascensão
sociais
esqu
##égio
##onha
vivo
histórico
dimin
Arqu
pri
top
anál
Bur
eleições
introduz
##xe
amar
poucos
Sem
possuí
retira
##emble
Nichelle
prefeito
cert
##ER
composta
Award
medida
##lex
Ce
programas
Inc
##xto
manter
indivíduos
motor
##intura
Secret
Estad
algo
bom
##itz
ambiente
dinheiro
##eição
inicialmente
##che
Bot
##uário
##orme
Salvador
frequentemente
##ensis
compara
dele
##icina
vest
##enov
Dez
empreg
Campo
cos
artistas
evento
agra
atac
colet
##uco
Inter
##éia
##ropolit
Merc
palavras
tamanho
aumento
passando
obt
##mann
famílias
geração
##undações
coro
envi
conceito
##zes
Pac
bac
##icou
manif
ganha
##tagon
usar
símbol
houve
##idae
##ríc
caminho
##ír
segurança
Op
estreia
Sist
Fal
anteriores
superfície
bio
##ts
##arm
participar
Tri
##CA
civil
Trib
##orde
##ck
antigos
Calif
torno
##idores
##ella
demais
Fred
##emos
administração
visto
##omo
ajuda
propriedade
rom
acus
verdade
Filho
normalmente
Air
PS
##ale
liter
org
##ump
##xas
dispos
aventura
##eriu
Popul
Eduardo
fonte
alguma
afric
Joa
influenc
europe
viz
Mel
##ificada
escolas
##embleia
venceu
esses
##jec
emisso
guitarra
linhas
##adura
##uf
##olas
lá
plane
##nes
aspec
quarto
##tico
Setembro
fug
imedia
Amb
tiveram
extra
municipal
políticos
Ministério
clima
##anhas
##iet
americanos
##ramento
Arm
fort
aust
Julho
Maio
##untos
fech
Nic
carro
Los
semana
celeb
Roberto
disputa
usando
novela
##gin
##ramente
##aliza
Tenente
##ificar
Alto
##rael
transporte
##rensa
totalmente
Martin
cabeça
transfer
mostra
Ilha
intens
##ecendo
oficiais
Ny
vul
Ferreira
##enida
nenhum
##amba
exper
##ender
Faculdade
autónoma
Entretanto
Gab
trabalha
sold
nascimento
nenhuma
Ponte
criou
decisão
Lima
##asc
##alha
Distrito
Divisão
contr
relações
##TA
Mira
Nav
veíc
##ficiente
Carval
##iança
crítica
Ciências
##ubes
incluem
FIFA
Tod
##bia
prete
defesa
fundado
Civ
quilôm
conquista
transforma
Trabal
quest
minutos
Kar
##vão
Atlânt
branco
Caval
##entado
Olímp
Saint
foto
Conde
Editora
##itário
artes
artista
aux
busca
Sha
cores
Alc
##ópolis
bilh
pros
Devido
Frank
decidiu
permite
##quela
Econ
Isto
Democ
brasileiros
chin
##tivamente
##enário
votos
On
##GE
##iago
Seb
##inga
sobrev
##ológico
políticas
Castro
##ricultura
transm
Vo
jornalista
Papa
Luiz
##ioca
legisl
##ko
##idor
Austrá
##plo
express
##osas
hip
peça
Rom
refor
industrial
mudança
núc
Outubro
Pern
##áticos
composto
Music
cóp
##rise
estat
amigo
Neste
##asta
##iros
Ric
##uld
Cer
aleg
##oração
##uba
distribuição
##ênio
##ixo
Até
vídeo
Fort
entrev
##iba
fen
desl
efeito
turnê
começaram
##eiramente
afirmou
relev
obte
apareceu
incor
investig
Estadual
protagon
##enses
##rol
massa
confir
veg
ult
setor
árv
comport
##ratég
missão
##ói
clubes
los
##uru
Mach
amea
##íba
##ull
Mou
Not
passar
Lago
descend
##ólogo
diferente
irmã
##han
inim
##erar
##ny
Índia
Educação
Loc
acad
Junho
baseado
VI
federal
Bandas
Sousa
comprimento
figura
CO
Mora
Som
Lin
##íqu
pequenas
começa
px
Seus
populares
ade
We
site
Jardim
Red
##ocol
tradição
Ren
utilizada
invas
respo
Austrália
ess
guer
essas
##rov
costa
Mend
mão
Livro
##íss
portugueses
estádio
escal
Mos
htt
passado
Richard
regular
linguagem
Companhia
Peter
##culo
Verde
Batalha
informação
Goi
bandeira
distância
azul
Wat
lic
carta
Sob
##su
liberdade
##orden
°C
constante
direcção
Isabel
reino
dout
avanç
##entação
##ére
Amor
Membros
##TV
##ânicos
##ituições
##GC
##eriais
extensão
##ster
##rações
Leon
##ulta
inúm
leis
conhecidos
herd
##oco
##ragem
##orado
Sport
ações
##enha
esquerda
Jornal
Charles
Mús
Phil
imagens
formar
necessário
meados
##ativos
ilhas
células
Outros
humanos
##ânea
Ext
coisas
XVIII
##ars
nesse
##aixos
formado
galáx
##õe
Guil
comunicação
##ova
encontrar
atingiu
passaram
bel
##rina
dizendo
originalmente
Gros
sint
quilômetros
companh
contrário
exclus
Agosto
Mulher
Ferro
##ionado
##órmula
igual
##aras
Torn
Ot
plata
regime
rainha
Página
##âncias
trabalhou
##itiva
##issões
Conv
##etes
##idão
orden
razão
West
dól
Pernamb
Stu
efeitos
Ram
continuou
provavelmente
sed
corte
comem
aç
Love
var
depend
Fundações
Mem
rapidamente
anunciou
##hor
##posto
letras
efet
##imbra
Rol
encontram
Hoje
##rita
imped
##king
##ci
elimin
rios
médico
difíc
máqu
esfor
Pad
Alme
Post
##izados
Gonç
Bru
conforme
##unal
##uvent
Sebast
dando
magn
##enhor
valores
frac
Branco
Revolução
Aç
Human
independente
chegar
##ates
##idado
Mai
##acto
visão
Estud
décadas
domínio
secret
##ña
Nob
##orrer
Inv
Cidades
##eia
##yr
Son
sequência
##van
resultados
Pes
próxima
treinador
Nesse
exce
conced
técnica
argu
finalmente
orb
deb
sucess
##ônico
companhia
Are
abertura
##RA
posto
bol
classificação
rádio
europ
##éus
##rono
Gold
aliment
versões
madeira
##ef
baixa
bra
sust
grego
##ógica
##ground
telef
pequenos
Assembleia
Trat
Hu
André
##iev
##ucion
Palm
atrás
cintura
##span
##endas
receber
irmãos
literatura
##érm
paul
Vitória
lugares
independência
##iblioteca
jan
##urou
torc
Pesso
Ib
Gomes
constelação
esteve
##ológica
aval
deixar
Almeida
provoc
##VD
psic
artigo
pessoal
Praia
aster
estratég
viagem
##ismos
paral
Março
##óst
##itoral
Capela
till
corre
##ring
negra
fortes
Organ
##iologia
Mov
##arte
formada
cidad
##ocha
línguas
##çado
Que
doença
##rid
Joaquim
séculos
##oviética
Novembro
##TP
nacionais
##ovia
semelhante
nada
Augusto
Rodrigues
casou
lançada
bás
literacia
##erado
respeito
##estra
##eirão
pec
Mich
Carvalho
construída
individ
Dias
representa
números
Sara
Existem
##fos
deus
eletrônicos
Catal
necessidade
##ndas
##arg
##ariam
##uros
Sin
concl
levando
##elli
##itava
passagem
expressão
##vida
Coimbra
##ere
##eck
ali
diretamente
##urn
projetos
fra
assumiu
incorpo
pediu
##ester
##ostos
construído
comerciais
##ocup
descrev
##uls
##aba
devem
apresentou
pós
CP
Sociedade
Orig
##dia
Campos
humano
Sac
##ilidades
abord
viaj
Antonio
dever
reais
tornaram
##ucle
Dezembro
##izou
negoc
Black
Sat
humana
##BC
##ancha
##ioso
democ
planej
incent
##arn
##elar
descon
Mer
##ificações
dim
objetos
aeron
entra
técnico
águas
##iras
##udio
bateria
bene
hum
pressão
##émio
fundação
Thomas
galáxia
th
histori
##esia
##itam
##encia
Palácio
espor
##ison
Site
naturais
física
objeto
Taça
ascend
##érea
tecnologia
##til
##ata
mm
Ret
von
##rich
combate
possibilidade
Van
Pet
Ru
naquele
fontes
perdeu
realizar
##âmica
##lamento
Cu
Oeste
mín
##avo
Bio
##assem
##ncio
##tus
captura
##lor
Rosa
Engenh
Informa
##erp
emissora
Web
velho
Cés
##ragão
Grã
##istão
Borg
##we
memória
##wood
Hy
haviam
estimada
Antes
seriado
frequência
catól
DVD
Nyota
Arte
Fundação
quart
contém
histórias
marcou
Fregues
Uru
poeta
saída
Equ
Port
Mot
contribui
reinado
nave
seguir
próxim
feira
NGC
secund
Suí
comuns
##rap
científica
Come
##itais
##stein
exec
mudanças
inglesa
Daniel
correspond
##rí
##órnia
Pou
##ush
##reiro
Católica
verdad
nove
dólares
porta
divulg
atenção
resid
Fro
##ror
##ónia
##iverso
##itual
declarou
##endário
##iações
princípio
##upla
##ítio
utilizando
Corre
background
Bor
Cir
##ansão
espacial
IBGE
deputado
usados
##ecida
Califórnia
Estádio
Cr
mandato
Brasília
Pel
##ield
criança
tend
Congresso
estrela
##peões
Mato
romana
##inar
##hal
profund
##fera
Senhor
refere
surgiu
Verm
César
Alexandre
alemã
##êmios
##iloto
míd
tit
long
##utação
##venture
derrota
##ariamente
mel
direita
técnicas
##deia
##ville
##empor
Espírito
acess
operações
Hou
visual
Sér
conquistou
Fab
prêmio
análise
##var
processos
experiência
##ouro
##envolv
##mação
Carn
Cho
##orou
##ítica
fest
##óveis
##án
referir
preserv
Europe
##igrantes
meta
extrema
paz
letra
##olf
Empres
conclu
Kir
fran
equival
inferior
desses
Camb
chamados
##umes
##ícias
##érias
internacionais
Tec
espect
toma
##xic
##ográfica
sug
##ury
estreou
Duque
##iso
Praça
perceb
Wash
chegada
##uito
Suécia
respectivamente
Bret
Áustria
negros
##ike
Constituição
##çar
Jun
Logo
dipl
##ute
pun
##ecia
Records
lemb
programação
##sch
tentativa
Figu
##udeus
Pernambuco
príncipe
questão
movimentos
ord
fazem
beb
dirigido
viu
Press
expansão
##ând
Vicente
grau
freguesias
japonês
liga
Três
Outra
fogo
repro
intitulado
Ribeiro
Independ
##urs
seleção
##ógra
Oscar
descrito
Far
fundamental
sobreviv
Card
trono
daquele
musicais
povoado
Jan
Suíça
pedra
##icam
Justiça
Lop
red
pobre
Família
##isse
Álb
Pia
presentes
gráficas
Rub
declinação
torneio
##mith
sonora
XVI
##burg
método
reforma
tim
ruas
Proc
Mass
ress
obteve
mãos
##ensões
Torre
menores
##IC
marido
Bandeira
Mur
econômica
##rona
edifício
Hon
Alves
##iosa
recus
##roc
##érios
permaneceu
soldados
equipes
presid
ligação
Madr
dentre
##vez
código
comédia
posse
atuou
University
##ose
festa
##ak
disponíveis
pud
Washington
Pap
##ernas
capela
##essores
Mara
dura
fizeram
esco
cursos
modelos
peix
##ower
##astia
##CC
constituem
territórios
rival
alunos
vil
finais
Franco
Civil
Def
proib
##órico
dupla
astero
##att
##óso
naveg
Ron
álbuns
tira
Hall
roteiro
instituição
pil
menc
autores
Sing
##itivos
Ins
Desenvolv
##igh
Plan
envolve
Madrid
agricultura
##enciais
##ogos
##eco
trilha
Ama
elabora
##ulada
recta
Avenida
Ásia
##ream
ilust
Todos
##ersão
Tour
Guilher
anteriormente
resposta
##rador
BR
##ions
sejam
Max
Obs
##ingo
cenas
melho
isol
##PG
Roy
instituições
Cinema
rua
##iante
##vas
Cac
Estes
constitui
computador
Administ
contexto
composição
##ild
supera
mistura
Rog
Homem
tub
##isp
sep
compon
wid
fáb
emprego
##çada
localidade
##uldades
##arqu
cópias
##érito
Alberto
você
carn
situada
conflito
SB
prova
##mentos
##ídeos
mit
condição
##áce
Ham
##gia
##aldo
##essem
##ertas
##rução
Israel
##mira
volume
formou
crise
típ
##rimônio
it
escolhido
Belo
Mark
##EA
comunicações
Algumas
##íram
religião
Play
Angeles
Ps
eta
obter
Países
Artes
ára
##orth
tonel
navios
busc
pop
arre
evitar
materiais
Lar
Rad
fundador
imprensa
##rata
resistência
nota
consider
preocup
NAS
pés
##fé
##eceram
escala
Programas
feitas
Agu
ouv
##orizonte
##ócios
##ors
Gro
famosa
##ortun
povos
width
Sistema
Hot
##off
City
##igua
deveria
##uncia
realidade
Goiás
baseada
núcleo
##uk
##atas
Enterp
##uso
Us
##olina
nobre
casal
conduz
Ministro
tradução
bandas
Ricardo
Cla
##esp
fat
convenc
##own
Braga
##ussão
Ceará
dan
passag
##iclo
Bom
##tuma
conteú
ec
##pp
indígenas
capitão
Terc
##aios
##itária
##lândia
##ensa
propriet
publicou
adicion
detal
Bad
ficando
Your
Reis
##erança
Im
alemães
Opera
inverno
piloto
American
far
pergu
destes
possuía
repet
subs
nessa
Bab
romano
hospital
ponte
##rão
verão
##ji
##aros
manteve
end
dizer
##inção
queda
sair
Está
##ressão
estrada
operação
campos
##EC
consiste
Martins
les
leva
Marinha
Flores
porto
parceria
amplamente
verde
eleição
Fol
difícil
potencial
educ
##AN
Federação
Leste
##postas
desempenho
##ricas
##çu
oposição
Corpo
sofreu
absol
##enham
vinte
dessas
Sand
antigas
ascendência
Espec
##cher
##iamento
##ecção
Contudo
cump
Net
##tório
Bre
##tudo
orbital
##isf
símbolo
auto
toneladas
##avia
##ebra
poderes
fazia
Mi
Guilherme
ganhando
##iral
Grosso
facilmente
##elado
Enterprise
tentar
Dent
##éticos
bispo
abrig
##pia
temas
Doc
inspiração
##rato
##olesc
alg
##lim
agríc
traduz
Si
##omar
distritos
propriedades
Nações
Orch
Victor
Pira
##amen
##aves
Fic
completamente
PC
simplesmente
##ácia
dela
General
fa
apel
Fevereiro
Mário
##uventude
prisão
Sebastião
podendo
Saúde
##manc
apresentar
Públ
proposta
##grejas
##met
##leta
adqui
##ek
moderna
sus
##alto
##azz
armaz
Desc
##line
oportun
##óqu
recorde
Cada
exped
##ropolitana
cena
##tores
ciência
##iocese
Pará
contato
##pressão
##yll
##els
deixando
Rot
romanos
críticas
shows
conden
computadores
##óvel
##eph
nascido
aus
delas
Egito
##over
tenente
filosofia
##icialmente
proced
##icando
cm
sobretudo
denominação
capít
##âneo
julg
##imar
http
Cara
gar
Greg
corrente
ficar
Filipe
vegeta
Bretanha
continente
##quis
##idar
##unes
Hal
Vis
Cabo
Soviética
##ilização
faixas
iria
mudar
Ocidental
ambas
Paraíba
perder
Luz
Kn
terre
estando
relativamente
produzir
urbana
juríd
usa
manifesta
left
##itados
##urb
elemento
margem
realizou
Gram
##umo
Louis
##ísticos
Fri
apresentação
vít
Live
##mina
##issa
troca
Nap
rural
##gica
inform
anual
partidas
##ionar
Et
especiais
Disney
arquitetura
USS
aconteceu
animação
Desambigua
Príncipe
planeta
##intas
Desambiguações
##ndimento
fir
banc
##hy
##ases
Blu
##entas
##inada
atuais
ambient
denominada
entrar
Jim
##ídio
perf
##any
Class
próprios
vermelho
Aeroporto
podia
Bento
seriam
afast
criador
##ww
Comissão
##bro
desapar
##ous
##ovo
dubl
jorn
britânica
##cop
encerra
##rista
Baixos
Zo
Departamento
adequ
escrever
gestão
##ilos
advog
Fe
Vida
Índ
publicação
##range
civis
##ball
patente
Olímpicos
decisões
publicada
gravação
Desenvolvimento
Smith
substitui
##onna
##DA
interpretado
estrelas
##itch
perda
sag
diante
apresentam
comportamento
séries
##ocl
vendas
bomb
teat
Banco
Tribunal
descoberta
Mesmo
entretanto
sinal
Partic
##usc
##entando
depe
ideias
Dinam
econômico
##ater
Média
públicos
físico
elog
apont
arma
Capitão
retorno
latim
Windo
##ings
##racia
www
levant
realização
Gol
PI
encontrou
recebe
##ológicos
franceses
rebel
##ink
cerim
##ode
Lor
utilização
corrida
Arc
mer
Maur
Dois
exceto
Les
certo
voo
Life
vide
desenvolvido
prêmios
continua
Via
Norma
Form
redor
##iria
##uminense
Lim
Colégio
##teis
Prémio
adic
Anderson
Grécia
arque
candidato
nucle
##ífico
Vice
Oriental
coorden
##ieta
contempor
compart
peso
Música
dit
##board
##bio
Letras
Horizonte
ov
estima
##hado
estruturas
Cultural
Corte
Programa
diferença
Sur
Gust
##íns
##ocar
##ânicas
atuação
chegando
Proví
passageiros
##ette
castelo
lago
predomin
##eus
##jor
##idez
##ún
prima
##mancip
##ires
Romano
Lev
##chi
Nobel
utilizados
##rons
acidente
meios
##iosos
Supre
conhecidas
Beat
jud
##pes
desm
saber
vál
Marco
log
implant
insc
Tratado
Pic
Jr
vert
persegu
Ly
idio
exterior
exibido
Atlético
##berry
##avi
ocupação
Nesta
##iversário
topo
Lopes
Santiago
Primeiro
##BA
Bob
Vasco
##ited
Barros
tradicionais
Dar
prol
escolha
circul
Ál
arran
Awards
##burgo
feitos
músico
parece
âmb
##azar
Comand
##itmo
adolesc
fenôm
dada
sel
##uária
telenov
reconhecimento
Will
XVII
construir
começo
##SC
apresentado
DC
recep
##óide
##ividade
culturais
espir
recentemente
##ínas
navio
PR
encontrado
adqu
aqueles
susp
definição
##ínsula
Superior
nam
chegaram
##ani
opin
elevado
##med
Estr
descoberto
##intos
artilh
Ke
##bert
Muitos
aprove
plac
##çou
Luis
Maran
curta
##andes
Rádio
morto
##par
Madonna
carreg
Maior
tela
desenvolveu
##ple
##tam
queria
advers
assassin
hidro
##fab
foss
Windows
##ximo
quadr
conde
##ici
Outro
ato
##upi
caiu
redes
praticamente
transmissão
Nev
desenho
ga
parque
Arth
margens
restaura
las
regras
##kin
imigrantes
ocasião
Silv
orqu
característica
##óquia
decreto
russo
UE
pô
clássico
profissionais
##ices
resto
##landês
Vill
graças
bril
Chile
##orário
regional
Hospital
Mill
astrona
##viões
Suas
aplicação
veículos
##MA
Bea
Força
consol
van
interpretou
luc
Ano
Desta
Ur
##áter
filóso
ago
distribu
##últ
##icidade
list
intelig
sangue
evolução
trip
Lam
discos
Cro
Plant
##bon
plant
Tol
pedido
oce
proteção
sh
##taram
##ianas
linear
arb
dito
moradores
indo
Lee
públicas
popularidade
introdução
##vora
Lut
Pinto
##gh
cru
##utor
bater
##DB
possib
viver
Deput
diminui
trou
ataques
trata
índios
europeus
natal
risco
##rian
Idade
sta
indiano
vet
Chris
Fórmula
níveis
viria
acadêm
Português
NASA
impress
substituído
hol
##uela
Jud
frut
aqui
tor
##IN
golpe
##alizado
##sen
Natal
ocidental
Linha
escravos
residência
Inicialmente
pessoais
caráter
Hill
vulc
Rel
instrumentos
Oce
suger
Jogadores
completa
##ést
animal
empresário
monum
##vera
ang
reserv
Joseph
##vações
glob
levar
Han
##otas
##íli
ID
by
prefeitura
denominado
##anth
desconhec
Foot
patro
##IA
Urb
Conceição
##eim
tenta
propor
conteúdo
confro
tentou
quarta
Plat
##ástica
##irou
aberto
Time
hora
##mond
Açores
##ism
engenheiro
desenvolver
Ribeira
questões
judeus
port
Gabri
selec
japonesa
drama
##zer
Estrada
Particip
planta
##orreg
##gráfica
Day
sp
##ibus
pertence
##zinho
Barcel
mortos
Machado
entreten
Juan
##out
renda
##agos
pintor
##estrut
religiosa
Álbuns
Verão
##izadas
documentos
execução
cál
planos
##hn
##itucional
Astero
Rodden
Roddenberry
Den
entretenimento
fãs
##ingos
##culos
enorme
matéria
National
regul
folhas
órgão
atribuí
complexo
entrevista
Posteriormente
sofr
inúmeras
Wik
##ênd
##élio
##erte
reconst
emit
seguido
Dinamarca
Ox
invasão
Rap
fras
aspectos
elétrica
Mendes
Rem
##ivelmente
Termin
pintura
##antemente
guitarrista
UF
prefer
âmbito
canc
suje
##entário
intelec
carga
variedade
Rus
##win
editor
localiza
Dra
##edral
continuar
infantil
Paz
encontrados
Ens
feminina
lhes
##ifer
palco
Pot
voltar
Aragão
##unção
##oni
venda
partíc
saiu
Arthur
bairros
brinc
essencial
Barcelona
Ka
Tecn
##erb
Ann
##ocolmo
##ary
Popular
ciclo
##alves
Outras
Estocolmo
##orno
##reta
Estação
web
##rimónio
afet
Sel
comprom
costuma
Rainha
aquele
Marcos
##ür
visita
seg
Ray
consc
##ênt
##men
##emit
##urus
exposição
consist
Polícia
##aster
##idados
trabalhadores
IP
cicl
existentes
##gada
considerados
Berlim
##aramente
##ultos
Esporte
chega
defe
sofre
##úcar
retornou
##qü
Barra
##alt
limites
tecl
segue
formando
prata
custo
mecan
Stre
Souza
Ko
##entada
##iti
histórica
bens
##inária
##hr
polícia
familiar
Gonçalves
gêneros
Margar
##urgia
Jackson
suficiente
textos
branca
pul
representação
carros
Estas
virtu
##ificados
##erico
##ína
##landa
renov
agrad
atuar
recém
##oll
Champ
aves
emancip
suaíli
##ecidas
##triz
Show
pron
sovi
astron
mensagem
May
##IS
Oficial
Pri
vitórias
alcançou
##orda
##EL
estações
Servi
##alidades
consegue
##gen
sobera
fins
determinado
bon
ale
representou
gravado
situado
##ndro
ferram
Ball
terem
Pier
Cart
Cór
apos
lav
##elson
Libert
##ju
Peru
olhos
ajudar
##uários
espiral
exploração
edições
Escrit
aprend
##daña
canad
ganhar
críticos
##rições
##tividade
##ionou
##tações
direto
armazen
terrest
##enz
solução
Nordeste
relat
ama
ha
env
Sw
##rick
row
arc
jogar
Foram
Lua
Saldaña
deco
ven
cenário
##irl
facto
micro
Space
Alem
God
mestre
desej
sess
autoridade
mesmos
Boa
elevada
vocais
espanhola
nós
sexual
##elhas
gravadora
Comandante
limite
Dark
pé
Preto
Top
pion
cre
vão
pergunt
posições
##rade
presidência
Imagem
RTP
event
Orchid
##ormes
liderança
anc
Fluminense
Confed
##onomia
defens
vant
##raria
##ástico
##uega
defend
Hung
estudantes
##ndos
##ricidade
fortal
motivo
pesquis
Scho
greg
categorias
Revista
extremamente
##uch
##igração
Noruega
matemática
##ets
##gueira
vale
acum
##ologias
comandante
equipamentos
princípios
Atriz
quebra
Atlântico
reform
infância
visit
fossem
Sho
Constant
Decreto
##jeto
sabe
agu
instalação
resolv
Mano
##ond
Cy
Test
##ross
##graf
pensamento
Guarda
fict
Game
Engenharia
Fazenda
Senado
cad
Receb
Tar
##ísmo
Bragan
unif
mostrar
Anth
normal
Ilhas
nerv
máximo
resul
inser
##áculo
Internet
Henry
sai
Ferra
representando
viveu
fatores
particularmente
filma
serviu
dificuldades
sil
imperial
##rático
##itânia
extinta
franquia
Maranhão
Séc
pág
comunas
Zona
Pode
editora
Ital
nordeste
##hl
Bragança
Uruguai
Cruzeiro
##ântica
econom
are
terreno
##ânc
##tua
líqu
Chica
##AC
identidade
sinônimo
##ócia
##ilia
tratado
Lit
##itiba
##âmetro
International
Venc
##ônimos
colocado
coração
preso
união
PT
mediev
mad
mando
duração
##arquia
CE
Sk
cred
##ológicas
norma
Mulheres
comemora
máxima
Vieira
estabeleceu
##oa
##rez
artigos
##uck
medidas
Prefeitura
##ilhas
papa
litoral
##ontade
Santana
##xos
resist
implement
Park
##lov
pele
abr
Imperador
tomou
digital
Sá
##vers
##utas
Mary
quadro
Night
Fortal
##mano
##SS
equil
vencer
interv
quadrinhos
Mun
Mancha
Batista
##ize
nar
métodos
##ende
prej
coisa
completo
Carta
produzida
Estat
destino
conseguir
##stem
dividido
##utenção
Tempo
terá
##rupção
##asto
##ape
decidido
Sérgio
##ricos
Cos
vira
##iental
Imperial
Aos
suporte
registro
##inados
##ésia
Irlanda
cima
Andre
interna
Hit
##íticos
certa
Tw
##div
contar
Nessa
desemb
Soares
ferrovi
bilhões
##omos
##rip
##cou
##udes
Font
##ialmente
órgãos
Image
aldeia
How
juntos
Reb
acaba
mídia
Big
Serg
##nibus
##inn
##eij
revolucion
ác
chuv
Município
cabo
rápido
riqu
aumentar
contín
##iguação
negócios
hosp
inte
##urt
atingir
fr
##çul
asteroide
##ísica
mantém
##berto
fala
Normandia
Polônia
Id
encontro
Bart
##élia
Eng
##bes
##une
aproxima
absor
##ême
Guara
##ênia
sobren
Fonte
pesquisas
FC
##ami
Despor
recebido
externas
Legisl
dista
##orreu
destas
líderes
expand
reje
##urais
Mata
vocalista
Recife
inov
CB
torre
realizadas
evid
Venez
Kirk
cac
##ionalmente
Most
milhão
Latina
##ied
usadas
##ski
muita
disponível
Gran
Negro
Belém
Paraguai
chamou
Bél
realmente
Teoria
Alm
##éticas
Clá
Der
Vista
tomar
##ogen
constituído
##çamb
convoc
comunidades
Get
contou
elim
Angola
VII
##ition
argent
Blo
Baixo
Rocha
Tu
café
térm
##ague
Ult
invad
haver
meia
ficaram
Biblioteca
Stan
##ógico
Comunidade
##formas
distingu
Voc
seres
Williams
instrumento
##OR
##iona
autoria
excel
Revol
Wo
performa
Napole
Velho
daí
gráficos
igrejas
chamadas
narra
significado
Wa
atmos
Torneio
museu
Bul
chamar
aceitou
samba
tenham
fantas
Nelson
##ston
##enasc
##oqu
##iri
##erante
Pu
roc
alfab
acresc
Quanto
colonial
Festa
cartas
concord
Dio
organizações
paulista
doenças
United
Simon
europeu
##tadas
mexic
império
eg
preto
próprias
estudar
##ology
rowspan
Bélgica
árvores
espalh
moderno
Oriente
fundou
Hungria
Sm
diverg
##iley
##oli
##odes
##ificou
Andrade
Fortaleza
Bay
##aixão
##kes
dial
##ionada
concurso
##gueiro
sala
imediatamente
##romp
##otes
Esses
##rud
centros
edifícios
capit
##intendo
baix
Gama
Guer
praia
máquina
Chicago
mata
Edward
Disc
Hab
gás
relacionamento
Jones
Billboard
Melo
dividida
##emitério
combust
Essas
##pus
Nintendo
##omun
##anhã
Escócia
Trein
with
templo
antec
floresta
One
##ív
##hen
Técn
##unas
ultrap
##irem
##eak
zonas
permitiu
fel
##uções
guarda
estabelecer
##nces
gost
ingress
anex
talvez
Sud
##quês
frag
##olos
proxim
Padre
autoridades
##féu
contratado
carnaval
##ME
desaf
semelhantes
Long
Final
##ítimo
##érico
províncias
##amengo
Sl
holand
Mesa
##hada
Holly
##ipes
onda
##rava
sud
praça
Grand
Desambiguação
cav
assume
racial
##oba
estrangeiros
vencedor
Álv
permitindo
Scott
cristãos
ox
piano
convers
estiv
##ógrafo
universo
Apresent
AP
vontade
##deal
chave
Marcelo
##uo
entidade
##ridge
Fernandes
Medicina
fã
soma
interpretação
Teix
progress
responsáveis
lança
originais
universidade
##yo
Clubes
##erdo
engenharia
fábrica
##oft
republic
grega
alimentos
manutenção
advogado
##ernos
Georg
religioso
consumo
gig
##field
Júlio
Torres
calor
Fu
Lig
Pop
card
##zinha
Europeia
juda
##erindo
doze
guard
urbano
PP
##esto
desloc
##aviera
Nat
##uven
loja
inaugurado
frio
verdadeiro
Ficção
Palomar
coleção
Baviera
##mado
Leop
Coll
vindo
##mon
proporc
gram
pan
consequência
territorial
padre
##ávia
arro
Manch
oit
honra
milhares
Geografia
Campeão
Adam
adaptação
##zi
altas
Americana
concorr
ultrapass
noro
alvo
infra
Vargas
telenovela
##ólogos
palácio
##nior
Apar
similar
banco
noroeste
Lín
##étrica
Royal
turismo
##here
##uva
quinta
##ônicas
##álogo
Bair
pista
##inete
Arn
posterior
Campeões
utilizar
povoação
condados
Barbosa
Tab
##uca
##NU
tocar
McC
##ócio
##ianismo
cara
##rub
past
eletro
fib
terror
adquir
arquivos
She
Sev
sant
descobrir
aeroporto
right
Bell
Walter
##anho
##ody
poesia
componentes
Sr
Teresa
reconhecido
titular
indivíduo
Karl
##taf
produzidos
jornais
câm
interc
configu
##press
Aires
cerc
Gên
contudo
##right
cura
aniversário
abast
ramo
Unidas
económ
##ku
historiador
acontece
##ecas
escritos
Mario
leitor
bord
libert
padrões
##olia
##well
dro
músicos
##ritas
##iliares
Tan
conselho
Localiza
teste
ur
emerg
Dal
##iew
temporadas
violência
Bac
##etano
Amer
fev
Movimento
árabe
Sor
gast
Cardoso
descreve
##idal
ced
requer
promover
Poder
##pat
assegu
dinastia
Província
Football
MTV
Especial
espírito
classes
##áut
poucas
Dam
##ione
Eug
formam
conheceu
agreg
reunião
satél
equivalente
##itadas
##ecta
localização
aplic
açúcar
##andro
Arquit
##avier
indica
##ômicos
tan
marco
indic
senhor
câmara
sí
ju
enredo
##róp
##ardia
velha
astronauta
CA
##uiu
EP
Cass
diferenças
##adeia
jul
acel
Antigas
muçul
descendentes
PIB
Deputados
ônibus
Harry
fé
possa
atravess
funcionários
Vel
nação
##ônias
Cle
Ross
figuras
##inais
##cep
potência
cens
apaix
crime
sinais
encar
capa
documento
Manoel
Capit
moral
##etró
princesa
Comando
##dy
##ndade
índice
etapa
Zé
kg
##ítico
Terceira
usuários
trouxe
Frederico
##ranha
incentiv
Pierre
Ry
##ilação
Ve
##rif
Green
queb
Anna
Las
claro
Teixeira
conflitos
##rey
exemplos
sudeste
DE
##graph
concentração
recente
##ID
Amazonas
##hu
poderiam
Público
pp
sudo
##unta
duque
asteróide
Méd
##jetos
deixa
Cunha
gran
páginas
utiliza
brig
ordens
sól
##nas
League
##letas
Serv
##úrg
vê
testem
##ronze
brasileiras
Lagoa
fusão
##ndrome
Mam
##ostas
Capital
latitude
##itações
Rita
##cão
consecut
encontrada
##ines
compra
Ill
Sé
Alunos
ergu
destacam
temperaturas
plataformas
##OL
##rindo
##ótes
##obil
##ótico
Miranda
consag
retrat
química
WW
impacto
Call
IDH
Água
fazenda
marcado
mam
Guimar
##ónica
Estudos
sudoeste
Seri
idéia
##nam
Mess
Pedra
##éricas
secretário
Book
diâmetro
expul
Best
Od
quinto
Dest
artístico
Jeff
múlt
intenção
históricos
White
Freguesias
prédio
produziu
domést
destaca
redução
Matriz
exibida
##celos
##NT
porte
##ânio
negro
Lind
##omend
Corint
página
LP
##ips
usam
Catalunha
##elândia
direta
Flamengo
Brown
precip
Sí
apresentadora
##etróleo
Film
crescente
Cre
##face
SS
interesses
Kan
Então
Rodrigo
Empresas
Guimarães
##odia
##erados
##ipp
Alt
vag
gravou
árvore
Lac
##gado
filósofo
ocorrer
austrí
##imentar
casado
estudou
##unicipais
Informação
##enter
iniciativa
dor
Tib
dú
Marques
associação
Lan
##atória
mensagens
##ácil
Garcia
assinou
matriz
atores
espet
Publ
tran
italianos
##ósito
Carolina
tivesse
ensin
cristã
Paula
##édito
Ira
##atch
Sobre
incluir
exceção
mandou
Lú
Pela
Ni
numeros
##echo
vot
##rinho
##cha
Duarte
dança
Barão
bacia
##hando
testes
protagonista
benefic
Lá
##vin
Branca
reação
##posições
Domingos
Cra
mort
##çamento
##anço
seguiu
cidadãos
Hard
##ragens
##itivamente
Abram
Moçamb
##work
##opa
bola
vendeu
GP
persp
artic
Século
##li
envolvidos
##ivais
períodos
polon
moda
ocorrem
pt
##ope
Prata
plataforma
próximos
Corn
crítico
Aérea
rob
Atores
explos
Pesqu
curto
trecho
canadense
pretend
Pessoas
Sag
contava
integrantes
UEFA
batal
suí
##uth
ét
##etria
Camar
Societ
##zy
Regional
estaduais
Bus
meu
##gou
falar
colocação
pref
##iando
FM
##âncer
Way
sítio
Tak
assumir
##pet
Venezuela
gosta
##emy
caça
criando
##ográfico
fabrica
quin
usuário
Organização
##rel
notas
Quinta
sucessor
contendo
revolução
partidos
expedição
##apor
semi
protesta
assistente
Universal
situa
##íbrio
justiça
Napoleão
constituição
longe
descobertos
Ford
Pom
With
durou
##rática
##alizada
Dave
Jov
##chos
Francesa
Carioca
últimas
transport
##sta
desmemb
Orchidaceae
MP
##gação
humor
Adventure
Contin
Medalha
##atu
Bir
Up
aberta
cresceu
Cria
##velmente
mob
Forte
oferece
##rades
diferenc
assuntos
anti
##SA
igualmente
discipl
senador
Matt
##don
##hians
fácil
comarca
Ciência
alguém
montanhas
Recebeu
Girl
vive
##imb
##itários
##ily
convert
Dig
Li
Wall
##edas
Louren
católicos
##oga
##ugh
coroa
Vermelho
religiosas
Who
mest
hipótes
perdendo
obst
Código
##mana
desist
perif
despor
prazo
Corinthians
cobertos
rápida
permitir
Hollywood
Evang
trás
caminh
##olanda
##azer
decidiram
Alfred
Anim
resultou
Governador
alterações
##ali
##apt
possíveis
neut
transferido
juventude
trav
transferência
Moçambique
##eis
abund
podemos
Neu
aviões
espanhóis
relacionados
Mestre
graduação
rece
##manos
Coreia
papéis
reis
fisc
Brand
Gio
##mel
motores
Wilson
dinam
austral
usou
Lourenço
core
designação
##tafogo
exclusivamente
Gard
vendido
aspecto
##mando
##eraceae
##ted
Guitar
conex
Botafogo
funcionamento
labora
XIII
pico
preço
ajudou
Júnior
inimigos
competições
fortemente
Rou
##icismo
gravações
peixes
##ift
##ibe
descont
discut
##íblia
órb
Johns
##pot
Boy
Ul
High
Sar
##feros
Gabriel
Lic
realizados
##íferos
faleceu
oriental
London
AM
LO
transição
##emplo
Associa
fabric
##itê
Chap
apresentando
descobriu
Comics
##ificamente
America
##ulto
Story
vegetação
tabela
##oura
##raqu
canais
proven
Bailey
responsabilidade
##imp
##ótica
anunciado
pôde
Exp
##ép
Steve
BA
egíp
Texas
portas
corresponde
Mol
beleza
proteg
Prot
Lad
representantes
Vil
und
Curitiba
associado
plu
##erada
##seis
simult
Columb
Telev
atua
Ribeirão
longas
Bernard
Chico
verdadeira
XII
##ravam
britânicos
Tony
Charl
privil
Jord
##DE
seguindo
clássica
##ises
Francis
aeronaves
##cular
##iff
face
Lucas
arco
revolta
##tions
Villa
##ture
casar
Rodovia
actual
Histórico
desejo
Sus
##sk
Ak
##vis
eleg
Brasileiros
##ertação
Dall
revistas
##áculos
##artamentos
##ômbia
Bolí
imposs
coop
##idou
##etti
##gura
avião
Bernardo
##aneamente
Colômbia
efic
compartilh
##óvia
reflet
partículas
audiência
##bilidade
solic
Madeira
superiores
livremente
coronel
mostrou
pilotos
Administração
Crim
Reno
sig
tráf
invés
motivos
minha
Secretaria
Bis
homenage
Sid
Alta
mang
Palmeiras
Jas
Anthony
Sum
##ômica
Bá
existente
discurso
aflu
##inguém
possibil
gr
precisa
Cand
##di
personalidade
calendário
Borgonha
Ut
cho
vaz
##yllum
naquela
promo
religiosos
##ímica
Fou
céu
garantir
##organ
escreve
provas
criados
horário
sáb
##izando
desenhos
##vind
acontec
Beira
go
nob
##ats
objec
North
herança
acord
liberal
House
africano
subord
##çados
ausência
Mand
Tav
referida
rodada
##itamente
camada
Canal
aplicações
interval
Loire
circuito
Ramos
prest
projec
##usal
estabeleceram
mitologia
destruição
School
longitude
But
##iné
Azul
Integra
##quete
ideal
Helena
Micros
alcançar
diploma
##mal
sou
Muitas
##ges
executivo
Got
##zas
##usto
Company
atend
sacerdo
suspe
filmagens
flor
MG
tensão
##ulou
Spe
Hitler
trama
Metropolitana
Dona
##õem
confer
Litera
definido
convidado
servir
analis
Veg
quente
Domin
Johann
esforços
respondeu
Bíblia
utilizadas
##ym
Mérito
Pelo
europeia
##orregião
baseados
Concord
pse
SBT
temos
recentes
passo
capacidades
oportunidade
bis
##ission
sert
geom
Sic
##ati
Ponta
acompanhado
##arias
populações
Berg
ben
carne
corpos
legal
inaugurada
jo
petróleo
Sendo
envolvendo
Só
##far
##êut
literárias
press
rebaix
encer
chef
Piauí
práticas
Person
indicado
culto
escolhas
produtores
perspec
Kitt
##peonatos
Joe
Buenos
##adia
recol
momentos
breve
plat
JPG
subsequ
estabelece
ampla
indústrias
##idel
requis
internet
##errado
##ery
##inações
vaga
##fica
Princip
transmitido
##gráfico
play
herói
Colle
objetivos
Albert
encontradas
sucedido
baixas
Rafa
Lot
Dor
regra
Society
Tit
##oção
inclinação
Suc
sexta
festas
UA
Campinas
argentino
agente
South
##uar
Trabalh
Pequ
pav
defender
levaram
##NI
ministros
##izant
Fut
notável
ST
Apol
treinamento
##reiros
##aza
##çam
##órica
Pouco
contos
Wood
bur
##ávio
abol
##lad
Arg
lados
##úncia
Fox
constituída
Land
##iot
##emburgo
##alhães
adicionais
Estrela
##cion
ded
definida
cod
investigação
##ecidos
sucessos
Gall
interno
Pin
##fim
##riano
filos
colaboração
desenvolve
conceitos
rac
lançados
lojas
Observ
##ET
##erm
semif
Pacífico
sugeriu
Steph
Dream
Magn
colônia
medicina
derrotado
Médio
câncer
##act
Mid
Volta
assem
Povo
modernos
fenômeno
##anal
##agar
mesmas
altos
Cuba
opinião
blo
##ímetros
Song
assunto
dram
##inf
instalações
##itro
##ínios
VIII
harm
coluna
Parlamento
turno
necessária
Street
professores
descrição
determinada
individual
medieval
##umi
##rano
##ibiliz
##âng
Fr
evang
sét
máquinas
Conserv
parlam
externa
PM
##acos
Ali
Viena
Cô
Velha
exclu
trinta
esforço
ópera
Fantas
Pil
situações
colonização
##ule
disputou
cadeia
independentes
infl
##ear
aparência
##árqu
Economia
Sete
##ulados
mural
rib
Encont
interromp
restante
##ashi
moeda
relevo
##lamação
##inger
reivind
##antendo
Coelho
estabelecimento
erro
circun
##úlio
possivelmente
apresentações
volumes
construt
oper
Abrams
Lav
Araú
Fried
cron
extinção
levado
separação
inclusão
Magalhães
juiz
fator
tido
mínimo
##ilton
##ízes
##ebispo
construiu
Moreira
##írus
metragens
simbol
registros
##arque
##iaceae
Maia
permanente
##óquio
##astre
livres
brilh
##êncio
ingleses
implica
Kenn
Toc
Michel
DNA
Duas
esporte
voto
Gonz
Holanda
Livros
##aire
rota
##kh
##heu
Monum
##efa
extremo
Ensino
Cacho
sepult
regress
nossa
cujos
Xavier
##emática
##ika
estend
vigor
dimensões
enviou
inimigo
lateral
vital
serra
descart
embaix
patroc
Bow
artística
Cord
Fis
extinto
hot
governam
##ken
##illo
recusou
garo
naz
posteriores
intervenção
##AM
##urado
serão
solar
Séries
manhã
ligado
restantes
deram
Você
Araújo
Own
fis
empate
Virg
Circ
Dentre
Cav
Pública
Fáb
Lomb
át
Rh
sc
recebendo
bases
raça
##ket
conclusão
mecânica
veículo
Treinadores
milho
Objetos
nosso
Monteiro
Diário
moléc
Jerusal
##ère
##peã
aquela
metragem
Catedral
lou
peg
##imenta
Asteraceae
Pas
equilíbrio
Auto
XIV
End
##site
##icano
epid
cultiv
Tru
afirmar
variação
Baden
conquistar
##itudes
PD
salv
espaços
indígena
Viet
##estro
add
determinam
surge
Tecnologia
##uação
deleg
Angra
Quatro
Anc
##pont
Front
parlamento
##oldo
afro
experiment
reformas
Sof
Irm
Ou
ple
##idi
##eng
Amar
times
Alfredo
fotos
formal
vantagem
razões
Defesa
baterista
##eres
Sulu
ondas
##ementar
padro
##írculo
sind
##opl
transc
Hay
##entários
##entor
incom
Jon
RJ
##atar
Alago
brancos
##postos
Fora
##epção
culturas
Tay
Prem
âng
vias
resulta
frota
Pens
transf
transformação
vere
superv
##todo
##tais
Filosofia
admit
##rana
Grammy
mantendo
##MS
rebo
comumente
danos
exporta
Marvel
Bruno
Bert
##ycl
aliados
passam
cobertura
Cambridge
Escritores
##ness
##adj
seca
Batman
largura
Transp
ditadura
##urno
gado
##asa
decorr
##ancho
arquiteto
desfecho
##anking
singles
##quet
entend
Independência
pena
conceb
representar
##estrutura
abriu
##ificadas
altamente
biol
divisões
##eo
americanas
Professor
##tuais
roupas
Coração
##yd
consideradas
Casou
Península
Eric
Wolf
proteger
Vide
estatuto
##FL
serve
integral
bloco
descreveu
Uhuru
##ervo
canto
missões
##essora
falecer
custos
##adoras
leitura
Original
oferecidas
sobrenome
Diretor
Área
##imental
arrec
PA
##OM
Lew
Braz
chap
rodovia
Gas
Sap
##fil
##rin
teor
japoneses
tip
bi
consult
vozes
automobil
resg
Bey
Die
realiza
pesca
Concordance
nações
Caetano
origens
experiências
##wan
doente
##izade
centenas
##ertain
colaborativo
Inic
Comunista
agrícola
Sun
##istos
Assis
onze
aí
inde
Pai
celular
##olfo
conseguiram
ia
Macau
Correia
Feira
Republic
deri
encontrava
chinês
decis
System
tras
irá
##oda
Metal
Galiza
estradas
regionais
Todas
fama
##atou
Trad
##ricação
diagn
católica
Cax
benef
lançar
publicamente
viagens
quadrados
desempenh
cop
comissão
Pires
global
Serviço
Microsoft
municipais
pedras
##ship
apaixon
##ON
##jac
representante
Oh
Pav
##medi
Espanh
necessidades
tio
herdeiro
Deb
Plano
Roger
##idando
Filip
aulas
anime
Nicola
detalhes
êx
instalado
derivada
dupl
espiritual
classificado
próximas
consciência
Johnson
Viv
catal
##ínia
capazes
##ulu
##abeth
##ouros
arra
estrel
adultos
trabalhando
##quistão
urban
##ômico
háb
mente
##eijo
reserva
equipa
teriam
##dição
##osc
Stone
infin
étn
antrop
Jaime
assassinato
fós
colocou
Neves
AR
Nad
bordo
compostos
teorias
Projeto
artific
premiados
Física
Mit
##âns
poderá
Tudo
vas
Adv
derrub
Jerusalém
Comm
Prod
representado
Margarida
program
Troféu
##mida
utilizou
ácido
Center
renome
Pinheiro
##atus
##ocas
governos
##ântico
vivem
pagar
comparação
eventualmente
colspan
influências
##SP
##ocos
surgimento
jogou
moviment
aprovação
impostos
significava
peri
crimes
prejud
cil
##eixo
##utores
Ern
argument
Asteroides
científico
Pessoa
Libertadores
vítima
fasc
lógica
fundados
Ty
ligada
Livre
##kov
##ituais
Meu
PL
Tot
status
##oles
##ourn
surgiram
Rafael
eixo
Vinc
enviado
Fra
cine
##IT
satisf
##úb
Grandes
gerais
Aquitânia
controlar
Watson
##uge
participantes
órbita
cong
sucessão
Már
pudesse
##etal
revelou
##iola
##erações
##erapia
confund
fabricação
demit
Estre
referências
Natural
##FC
Warner
ign
sessão
colocar
##positores
nomeadamente
pessoalmente
guerras
Times
alternativa
idioma
##cios
##pto
##tation
incênd
Hans
caixa
festival
foc
dificuldade
##éreo
Hugo
amost
##more
##entados
##ipél
juntou
Confederação
Represent
universidades
ax
Guad
##omeço
Freguesia
múltipl
atos
Alice
abst
rurais
fundadores
operacional
##çando
biblioteca
##reiras
raízes
Angel
Lud
vermelha
óleo
observa
Oceano
##ilde
Sci
estratégia
proprietário
Lug
tiro
##ruções
##emberg
Fons
Portal
inauguração
##áceas
Hip
banh
##itivas
matemático
Open
Zelândia
rig
medic
constitucional
##lar
autonomia
deuses
habilidades
ál
##iterr
gravar
culmin
Antiga
##fl
Entertain
Christian
Gene
tomada
##orizont
Cláudio
Drag
##úng
parada
funcional
performance
##roco
##leos
AC
aparição
Trata
##inense
permanece
Vivo
clientes
Good
elite
submet
localidades
##chen
propag
Segurança
saud
##arcas
surpre
Bud
##olor
torcida
Bispo
subdiv
remov
Isa
prob
empreend
##eirista
College
addventure
cujas
florestas
População
Cri
dava
tendência
Hero
Americano
eliminar
Ata
certos
Eliz
##úl
carb
vieram
roub
Brian
Mort
ponta
##úria
olímp
clássicos
Terminal
##eld
##icionário
Moura
##raram
Bruce
nuclear
Neto
atras
Litt
Pok
##zar
Europ
##mac
Arist
Law
ocorrido
Sir
foco
extrem
irreg
Oxford
##ônicos
##iat
lenda
Turismo
promoção
##ye
república
Mike
anf
Política
Diego
Jacques
pagamento
frase
Len
##kins
##arro
rica
anuncia
##ruc
EM
matar
pouca
integ
remont
##pest
designado
orientação
institu
Cantores
##essas
documentário
Blue
##izações
emancipação
Ministros
neer
financeira
##edy
resolução
medo
deriva
##watch
eng
Peak
##Começo
ambiental
##estas
##feita
tribos
Plants
cinemato
##âneos
ameaça
##reiraComeço
variável
adquiriu
##onc
paredes
Glob
iniciais
boas
Entertainment
entidades
impera
Choose
drogas
##orf
##inário
segundos
autora
##radores
Back
neu
estabelecido
torcedores
fruto
Brig
Nick
Euc
##antil
##íso
alb
especificamente
Bairro
##arão
habilidade
Andal
capítulos
aérea
Bag
CC
ritmo
imagin
##quad
Coroa
prolong
Mis
quilóm
##bat
camisa
símbolos
riqueza
##dal
hid
##ób
inteiro
infantis
Champion
específico
##top
universal
tradições
Quad
patrimônio
Joana
leite
atmosfera
integração
ecl
Sex
astronômicos
rein
popularmente
exibição
##ations
cai
##obres
definitivamente
possuir
SA
##identais
conhecer
soci
privada
alimentação
##enes
comunic
agrup
famosos
Base
##ution
arg
##ndere
Viana
graus
aquis
Haw
compreend
Bos
bras
##úcho
Renato
formadas
abrang
ib
termina
record
guia
reboot
vent
suic
cargos
Fonseca
Nº
virtude
SI
bronze
##iantes
##idada
Orl
amarelo
filhas
historiadores
##enções
##NEOS
Alexander
Teve
##quesa
##uga
Young
cerimônia
exat
Bolívia
Ever
Hav
Mr
##sey
oferta
radio
ciências
Industrial
notícias
Turquia
##arta
##iles
Bened
atribui
relacionadas
rochas
quinze
MA
Pena
gab
representam
Alemão
##iren
##ificando
inspirado
##íssimo
estabelecidos
Off
Pros
indicação
##fal
##ration
inúmeros
dono
##elly
UNE
Considera
fronteiras
inteligência
Pant
certas
LONEOS
##ty
Carmo
dispositivo
segre
Mate
estilos
##arth
prision
Robin
##cc
Taylor
AL
variações
Figuei
iam
Forças
##ogle
posicion
associados
retirada
Pinh
##wer
substituir
##entam
suport
Disp
Lob
compat
Casc
Kim
ficam
Coronel
capítulo
periód
Gi
vind
aliança
Colônia
identificação
##anab
demo
Mortos
boca
##mi
caç
##ée
pinturas
carioca
Giovan
##inop
chuva
Morro
Ton
Linux
##igi
##echal
cientistas
##ílica
conservação
ferramentas
Power
ving
##estos
encarreg
bloque
causou
combinação
IN
Filme
##icio
paradas
fases
##deias
##rass
volunt
desenvolvida
IX
je
pól
abrange
conselhos
##adrão
melhorar
pên
Corr
campanhas
##ônios
Marquês
##ónimo
explicou
##tinho
atribu
interface
colonos
##tim
Guiné
Silla
##ustriais
daquela
tropical
Tam
##atem
##etta
disputar
dramat
tratar
jes
##tive
filosóf
raios
Princesa
##adjuv
##adeiras
causas
uns
##real
##enberg
preços
assinado
##elles
acreditava
doutrina
agentes
referido
##idação
Parad
respira
publicados
Patrimônio
Nome
Tai
##evedo
adotou
secundário
Nam
##alizar
conjuntos
setores
Nunes
##arl
contam
fru
suf
##ingen
gratu
Pert
lidas
Clar
Execut
algor
Tóquio
quis
Alan
gregos
Wür
##icular
Humb
##elheiro
retornar
Grav
fatos
Quem
##landesa
Ku
##ourt
acredita
circulação
zero
##oto
##lama
##erie
Encycl
Naveg
##ipélago
memb
Abra
##rot
grave
decide
tecido
Felipe
Fir
##nco
empregada
##ulações
##elecomun
Secretário
eletrônico
morta
##érsia
médicos
tentativas
Kat
##Hz
cres
rend
##incial
costas
polêm
marcas
substituindo
precipitação
Literatura
cun
Sep
##arch
##rik
dependendo
##nth
##abil
##ropri
Lus
##iner
aeronave
##mirante
Great
##édios
##ígios
disponibiliz
Sav
##ander
elogiou
sop
##use
Professores
Fez
substituída
célula
receberam
Spring
Património
Seg
aumentou
extens
existir
##ódulo
variando
nativos
Count
gelo
medalha
agrícolas
##oquial
associada
##erf
trem
Samuel
Spacewatch
ensa
geográfica
amador
vizinhos
Columbia
quilómetros
Rui
##lan
Roc
pior
terminal
##com
Ivan
morrer
Prop
portuguesas
Kal
##querque
domingo
sintomas
##EI
dedicado
Harris
##ifolia
Jam
emoc
histor
ligados
Amazônia
essencialmente
anualmente
Prefeito
namora
##êmeas
rico
composições
Bou
##íbl
##inadas
manip
reconhecida
Light
abre
Apenas
normas
punk
variáveis
implantação
Rese
registrada
vinho
vapor
causar
##urada
be
alma
descobre
##gs
##éle
particulares
Mir
Noite
topônimos
##junto
voos
horizont
Lab
acontecimentos
Ok
Pio
##bach
##VA
##esco
##cool
depende
Platão
Bomb
Getúlio
combustível
substituição
apelido
##rino
Jacob
Giro
angl
lutar
recurso
Alpes
arquivo
financeiro
incluía
hipótese
Lord
##úrb
##ionados
Pit
jama
##ilho
paróquia
humanidade
resolver
flex
jun
ninguém
##atórias
##cht
##presa
Constitucional
radiação
Gib
Sítio
integrado
germ
comedia
incap
aparecem
permitem
gri
Raim
Beaut
terrestre
##iaram
goleiro
ativista
Cristó
enfrentar
Lem
##éreas
Hunt
##óx
##ebre
excent
federais
Língua
apresentada
Vera
vinc
##xon
##box
Rang
Mãe
Quart
motiv
##ércitos
online
santo
##cil
##aré
escudo
Portanto
Arch
Visco
clín
##alho
##urnas
Situ
hem
individuais
##quist
podiam
líquido
Encyclop
Bour
troc
Convento
Estatística
Num
hard
##pondo
elet
organismos
dirigida
Data
##élica
vendidos
Grêmio
Gonçalo
determinar
atacante
ovos
vento
##jar
##úp
recuperação
nut
##ícies
construídos
pratica
julgamento
organizado
Cabral
parcialmente
Andaluz
bor
Lanç
##ning
##ezas
chão
existia
negócio
dispositivos
##çadas
Heart
possam
ligações
##elecomunicações
Nar
##íam
eleitoral
Perc
compar
latino
dirigiu
Vascon
Martinho
diplom
policial
exercício
Suprema
Comércio
opção
Romance
cord
cobre
##aganda
visitantes
##grafias
Polit
econômicas
demanda
cub
eletrônica
russa
Mosteiro
cardí
##ombo
residentes
Nik
aço
nobreza
Russ
alcance
cô
poemas
renunc
##ophyllum
Germ
Álvaro
Espa
definir
##ígio
##óides
cliente
aceita
fotografia
##ité
Sej
##igação
pertencentes
atribuído
Vers
vinha
major
Bost
Antigo
investimentos
Infante
admira
##PA
Rab
fér
Alv
Afric
Azevedo
profundidade
assemelha
classificou
significativa
oceano
##lesi
marcada
excentricidade
preced
defic
Socialista
pobres
vivos
cordas
##ógicos
##ógicas
divulgação
tum
embarc
escritores
miniss
Das
casada
Douro
Nu
raramente
doce
Negra
Finlândia
Censo
East
proemin
##ops
Association
equipamento
começar
Little
Clara
Liberdade
peixe
companhias
Bapt
Ken
Va
##bi
##úne
Universo
braço
dimensão
##ilares
gerenc
perdido
resultando
passaria
subt
amplia
Albu
Dol
##witz
promovido
industriais
montanha
Somente
correspondente
Relig
Classificação
##ítima
tarefa
derrotou
dedicada
integrar
##ttemberg
escritora
Andaluzia
Batal
contando
poema
Vários
Existe
assinatura
ecol
fach
participações
Diogo
esf
##órdia
colônias
campeões
transformou
Württemberg
Ala
hou
Freitas
legislação
aparentemente
Schw
Mog
Mult
Rena
Portugues
fórmula
comet
monarquia
Mineiro
Cristina
Walt
adversário
Uc
propósito
evidências
Cov
Cup
##estes
##iguidade
SC
exatamente
Meg
##adrez
Diocese
comercializado
Lewis
Cob
Sena
hel
##úva
continuação
Ofic
Mello
Tendo
##cara
cauda
WWE
##UC
##edora
ocupa
bancos
Femin
##aldade
recomend
uniforme
##EAT
Últ
incluiu
naves
Dougl
distribuí
Elect
##lom
##Station
##ches
visando
supl
chuvas
##tro
pecuária
nobres
##erou
terminando
Trabalho
Cad
##fort
roteirista
##sea
atletas
Series
Junior
fec
##die
##oridade
##estina
Marie
monte
Veneza
cen
##ólico
ancest
alv
discussão
reduzir
cavalo
##las
reorgan
Moscou
Tocant
endere
##já
ativo
brancas
Pico
seção
Avent
Bet
##oros
escoc
Edição
Duc
jard
##redores
considerável
Fundo
relatos
distintas
##rilha
Albuquerque
Bach
##ecos
font
fogu
amizade
Tes
##rans
finalidade
monarca
##uvenil
Tok
tupi
restos
Lula
Morte
computação
equação
Atenas
deveriam
Lux
Canção
##adjuvante
Cec
querer
##íssima
##guaçu
satélite
Bárb
faziam
Meio
abordagem
inéd
##port
##astas
avaliação
Pó
familiares
avô
aparecer
perspectiva
bits
##igma
avanço
investimento
Mana
##nca
##unk
Island
Davis
Bem
Valent
Calv
cultivo
cem
Coop
causando
comediante
esperança
Ts
##chas
videocl
Public
CR
##éb
coinc
Chron
##ruth
iniciada
morf
ram
organizada
##yc
parede
sexto
eleitos
Mant
##ident
##rosa
Mariana
Elizabeth
##erd
muda
Expl
notícia
Iraque
##sson
porção
##oth
campeonatos
químico
cosm
rela
##rix
Kid
##émon
Supremo
Leonardo
necessários
reflex
assistência
##egro
afirmando
Norm
Pais
pira
##uir
Cul
fon
##ituto
sujeito
agress
Radio
Lag
##LA
##ouri
##ótipos
##rof
pares
forneceu
Conferência
##onial
sueco
Gua
Google
Paróquia
construções
tecidos
gerou
recuperar
desa
Vig
nomeou
praias
PlayStation
Lov
Log
falecido
iniciado
Raul
Comitê
limitado
Dados
ambientados
Silveira
fundamentais
Boston
Hor
pertencia
##istoc
Teod
Quint
reconstru
camadas
##BS
Frei
heróis
degra
##romo
preciso
licença
##omat
poderoso
ocasiões
reprodução
Gord
Stra
define
Democrático
Kl
provável
descrita
negociações
Cher
criadas
quadros
Equador
Bla
Dick
impedir
vítimas
sofrer
dign
##uít
##erca
Cole
Jason
Jur
asas
cedo
ABC
Fire
Mü
##ildren
##lexo
placa
Agost
Munique
Bran
Mik
Inácio
produtora
funciona
placas
ativa
acervo
limitada
considerar
Wrest
utilizam
sons
frutos
ante
tribo
nele
escalada
Viol
intitulada
ordenou
mental
Bros
lent
Telenov
democracia
##riram
Nota
colec
substância
##rob
enx
##feta
Brook
##entaram
ambientes
##iense
multipl
sessenta
##ject
orçamento
##iço
##sche
esportes
##tures
concerto
cantar
vencendo
ramos
subm
manifestações
intelectual
Aur
Kong
progresso
tempor
##estino
estrangeiro
conexão
Ble
ocupada
##érebro
hosped
Spec
salas
promovida
baixista
##jeção
audição
primo
Caso
departamentos
distante
achar
There
Broad
Vietn
##rôn
##olom
naval
Direc
Gh
conter
partiu
integrante
Junta
mara
##riam
convite
empregos
monumento
##lav
incluído
relacionado
##elm
##onto
raio
elétrico
##âneas
mecanismo
Parana
Sert
tese
ofens
sonho
##âmico
mission
##ópio
votação
Rond
calc
indire
Atrav
fornecer
Aud
Chi
evitou
Milão
##voa
##damente
##ange
Carnaval
cancel
Eure
revela
IC
##quina
basicamente
promet
Apollo
Leite
Douglas
gira
Rosário
confronto
abriga
modalidade
publicações
estran
France
literal
atacar
Pokémon
Frota
reta
dissol
Europeu
Sejm
##ólio
Déc
##entista
##espera
pain
Amaral
Stephen
Emp
clara
##órter
entender
Ec
declaração
Bandeirantes
artilharia
passe
mediante
acompanha
excelente
Bast
Sony
apresentador
correntes
Trop
percurso
Cai
Aliança
estudiosos
Algar
Anat
Caminho
escolar
etn
Liberal
teatros
##ásio
Doutor
incentivo
romp
##hora
Pho
produções
Matos
concessão
escond
Stad
vivia
Caxias
Giovanni
he
History
futura
candidatos
aluno
##iller
expecta
descrever
Cachoeira
leve
Network
testemun
##enciado
envia
crença
NEAT
##ión
conhece
vender
físicas
mangá
europeias
##sky
##ules
designar
Fé
Pos
úm
isl
Territ
Operação
##amar
Jagu
Líb
bons
divisa
folcl
black
considerou
##ank
##ultados
##ugos
##aso
pesc
Glória
bast
interação
Interior
Gilberto
orquestra
##enia
##utu
perante
##órgia
Lé
RS
##ontin
duplo
##ângulo
##fin
##magn
Orqu
##ilhão
corridas
##icados
campeã
controv
larga
##inter
Indúst
divergentes
##sol
notáveis
gas
Baía
raiz
Ferrari
Benjam
Volume
Imprensa
numeração
declínio
##rést
itens
sorte
##rego
##rimentos
Geraldo
Nuno
Mars
taxas
Map
jazz
fundos
merg
aumenta
##renos
reproduz
Nicolau
##ásia
prossegu
atração
gostava
hect
ach
nasce
Prússia
viviam
acabaram
pseud
Telenovelas
NBA
cana
contribuição
trazer
católico
Hell
Conn
apoiar
Nogueira
fictício
participa
Franço
Saud
Championship
Sudeste
epidemia
RNA
tril
sementes
##zen
Sax
continuaram
gin
disputado
concluiu
bic
##GB
##iac
exércitos
escul
estágio
##álise
irmãs
ocorrência
Bárbara
dão
##itavam
##rec
actividade
mudado
técnicos
cristal
##ianópolis
Umb
##ropec
negras
décimo
interpretar
erros
aprendiz
Alagoas
Rac
Trav
##quista
preenc
concertos
mete
diversidade
colegas
Tocantins
##ossa
##iformes
relatório
manusc
observação
transformar
ph
vírus
corrupção
Sampa
Arro
Abreu
observar
##óstico
narrativa
##agon
contribuiu
Ligações
Fur
cereb
ocorreram
##guez
Congo
iniciar
televis
mostrando
Gustavo
Iv
##ulha
impressão
##ílios
Chaves
##add
terminar
Cerca
##teza
ajust
derrotar
##SCO
Rud
Gales
rendeu
ilum
bud
##lig
simultaneamente
cineasta
aquisição
hectares
##ypt
propostas
##ósitos
Ans
##vard
##uki
##icana
##onne
presos
turistas
SE
##quita
Obras
incluída
permanecer
aceitar
Fát
fizesse
Cristóvão
Joan
garotas
relativa
Sald
específica
Biograph
Arquitet
Encyclopedia
##ebo
SIC
retom
desenvolvidos
##dom
pobreza
confront
##tis
fot
Fátima
Cemitério
Relações
##rog
escolher
tecnologias
deputados
Petro
ost
exemplares
definições
tentando
arquiteturas
artilheiro
##entamento
organismo
mercador
Philip
intensidade
Borges
Raimundo
##usias
eliminado
Amp
Java
##rinha
navegação
Pers
dí
tes
##pé
circunst
##rus
substâncias
vestígios
##eva
##ólicos
Comunicação
mostram
már
penet
Samba
fria
tornam
metropolitana
esquerdo
Belas
##ovias
##ifício
sax
estabelecida
combat
conspira
novidade
descritas
minissérie
ingresso
cardeal
CarreiraComeço
reuniu
superando
GR
Pep
solid
Friedrich
energ
##órida
Toledo
Ator
##itaram
##ntese
literária
alig
solos
excep
Kle
Sega
##arde
continental
religiões
Évora
##ísio
Ash
Death
havendo
Dos
daqu
intermedi
faculdade
Dessa
Tig
construídas
auxiliar
mídias
Gênero
cadeira
##çon
inteiramente
carbono
ber
cérebro
Bulb
Jane
##ript
terrenos
Tít
nomeação
##eixe
minas
emprést
intervalo
mim
##queira
asi
infraestrutura
nascida
Mateus
##jou
Invest
semanalmente
Solar
atender
arroz
Cry
Ell
estende
Calendário
Jovem
ót
Clark
Flórida
Cabe
estátua
trajet
proteínas
Carneiro
Moon
arquipélago
Pesquisa
Morr
marinha
correu
efica
Contra
continuidade
romances
paisagem
bru
##izadores
Vasconcelos
Crit
Vlad
estaria
lutas
Video
previa
instalada
resolveu
Pint
UR
##ád
mesa
Ria
andar
abandonou
Folha
Visconde
Sn
host
abrir
dirigidos
buscava
tráfego
céle
idênt
amplo
ré
##itárias
##ressa
atleta
Herb
servidor
neto
##hol
##hon
espada
fi
##rie
produzidas
irregular
cass
percep
refug
planejamento
Hotel
monst
Johnny
cálculo
gan
sinc
vac
##duções
grand
precisão
Aves
Howard
incêndio
polit
##ales
entregue
##ultor
cristão
acadêmico
variam
financeiros
##oriais
##edos
##ernidade
apresentava
demol
Frente
proprietários
regulam
Buc
Home
##nga
##órcio
##alizando
Chefe
Ambos
Wiki
rum
##ilv
chanc
##atividade
automóveis
##pha
Batt
dezenas
laterais
haja
Brito
Sard
mold
áudio
Allen
acusado
bara
triun
Sicília
cro
canh
ríg
Acred
cristianismo
Geralmente
intensa
Sampaio
Vat
selo
##yt
Atrizes
deusa
parentes
obed
agência
Artur
##raft
anú
recrut
##óricos
excess
brev
Através
##nf
##icus
##eijão
ler
específicos
##ournal
Núm
acerca
TVI
cientista
oferecer
Schlt
Desp
blocos
bact
povoamento
Sporting
sap
considerando
Free
Ibérica
shift
Cient
Diz
concepção
colocada
ficava
areia
##imir
portados
##elia
##anato
encen
Truth
##ionando
denom
oxig
ave
tê
##bá
provis
##ravo
projecto
##rod
##esses
##aranja
destruir
soviético
ocupado
refl
escrevia
fugir
Corb
Geórgia
esportivo
Largo
Camargo
Kent
##cast
pers
Parte
value
juris
sobrinho
localizados
tradicionalmente
Orlando
##iden
alteração
Reich
calcul
húng
##jado
descendente
Studios
##igan
passava
jurídica
representada
costumes
segmento
Hil
##postamente
presidencial
partid
News
gráfico
explorado
chinesa
juí
##inch
Origin
batalhas
AD
Hamb
##iami
Muse
dominante
enfrentou
anel
##redor
atraiu
ressal
seco
alignc
Nig
##RO
tripulação
hi
##aciais
interpreta
condenado
confiança
espetáculo
##uítas
##rido
Editor
Boe
revest
fornece
Sky
VH
cento
longos
##urch
propôs
Floresta
##intra
##ocolo
exílio
##amina
constantes
gravada
Moraes
alfabeto
foz
iguais
Bulbophyllum
Nazar
reporta
históricas
preservação
Figueiredo
aligncenter
##agn
Unidade
policiais
Cantão
espectadores
torres
Nem
##retos
Porta
Guanab
Banda
https
Software
sv
esque
##app
Nascimento
##idiano
##landes
cortes
Conhec
fazendas
##ógio
Arquitetura
mortes
estacion
##étrico
identificar
viajou
UNESCO
ONU
pesquisadores
lac
##ítios
explica
Ay
útil
##US
metál
apropri
Sound
Renasc
bizant
nela
##atra
##mais
dob
olho
##écies
Anima
marcando
August
Down
circular
completar
Miami
professora
Nascida
eclesi
brilhante
Moore
Pent
Telef
Esperança
retorna
Aranha
##anda
##írio
enfer
assistido
pát
##inus
começando
urbanos
Juventude
##otus
Guard
ocupar
montanh
sustent
Dentro
##agner
entrega
Bia
citou
##gun
impuls
cuidando
fixa
Brad
Eva
##iosas
gente
Dead
tornaria
liderado
Guanabara
compil
Acesso
##uis
Intro
##tórios
consideram
atuando
arquitec
mapa
##fam
contínua
Kev
##tac
preparação
precisamente
derivado
Rick
##ML
proclam
península
moléculas
Numa
##hard
##uter
Comend
Design
austríaco
Sher
##odin
##day
##úmulo
Maurício
Beyond
móveis
##amá
Milton
processamento
companheiro
compromet
Kub
acent
liderada
sozinha
Índice
vidro
##wo
##ercial
propaganda
Domingo
mamíferos
##yth
desfile
cresce
adotado
Ti
estudante
Superc
Lobo
cogn
##eler
Alente
Rose
castelh
Website
rivalidade
Dens
##TI
##odão
norue
##wart
preta
##eller
privado
etapas
##ario
##itório
##agen
trazida
Schltr
Mortes
reman
Cham
freqü
ocupou
Interpre
##érpre
##uzil
rodovi
introduzido
Cora
##estres
clim
conquistas
Beatles
Suz
reinos
comprou
ocidentais
contraste
israel
liberais
moedas
desistir
##itmos
Compl
postos
consequentemente
jamais
Into
soluções
Valenc
relacionada
físicos
implementação
##pu
##icia
formalmente
organizar
##TO
Barreto
graves
##uas
##eau
árabes
##pping
##nch
##udia
##ratas
descobertas
destacou
entraram
##wig
inex
colégio
distinção
XXI
Começou
Viseu
##iterrâneo
muçulmanos
##gi
aprovado
componente
proximidades
Ye
##tografia
Química
círculo
mig
##icultura
executado
Tavares
playoff
Esqu
médica
começam
simb
Când
rá
comprar
divide
participaram
Rav
atira
graduou
brasão
pi
ranking
esg
Petr
bíbl
Tais
##inae
ruínas
##rânia
tocou
Fall
nativa
##onga
quarenta
critérios
manifest
Andrew
Gri
##EN
NA
ras
##guia
atitude
comprov
presidentes
avenida
ângulo
realizaram
##óticos
Participou
impossível
fuga
Templo
Ze
citado
constantemente
lançaram
Alexandria
rup
##eli
Elas
significativo
Ig
##izam
escritas
Agência
Lúcio
Lombardia
##olomeu
##nik
##onente
sono
##iderou
minerais
fachada
cór
##úbal
mantido
gerar
Manchester
Ucrânia
Mec
pura
##sler
##ciado
mineral
núcleos
Wind
fita
pne
##mada
acha
mercados
teclado
Brazil
Psic
configuração
gripe
Major
cirurgia
mínima
AB
renasc
coz
transl
Spock
Toronto
ventos
básico
auge
Âng
##riana
amiga
improv
Começo
Resta
supostamente
intuito
Marte
menino
euros
Conta
humanas
vendida
sintet
gabinete
Bush
Riv
Laura
permanecendo
elevação
OS
Rios
Zero
##lora
##ection
##aborou
perigo
influenciado
preocupação
Burg
Jogo
##jamento
MS
##inqu
amist
salvar
##ótipo
Dum
Naz
##ásticos
Bull
fêmeas
##ífica
Ari
Myst
trajetória
impul
Aveiro
Tupi
bov
##onesa
Flora
cuidados
atinge
compreensão
desenc
##assa
molec
svg
regente
Freire
Stand
Soy
Romana
Tob
##ilândia
parecia
difund
crédito
Mix
aéreo
##mant
placar
##xt
desv
más
##ör
##acab
Missouri
François
Dicionário
##uti
dominical
deixaram
gole
Docum
suíço
Dragon
##iário
##uxa
falha
quantidades
Ach
Houve
Trev
Edm
Bela
concret
##ânsito
Past
##imes
curtas
necessárias
Galeria
Muito
vitor
##inz
alimentar
actualmente
##ertar
Tomás
What
Finalmente
Group
Ente
Hora
Sent
bura
Benfica
debate
domínios
USP
expressões
selv
feliz
tempest
incentivou
vidas
dizia
McL
dedicou
Rat
baixos
comida
sufic
ara
pernas
trabalhadora
machos
fazend
Bi
Igu
##rates
braços
##entador
##ilis
Patr
entrevistas
Sinf
Carol
elétrons
pacientes
Síria
tipicamente
aclam
border
dinamarqu
êxito
Manaus
Rand
##mag
curva
arcebispo
Hong
fert
Hem
novelas
jardim
##bul
##guá
vencido
enfat
específicas
Paradise
##ray
market
aumentando
Senna
complexos
estúdios
Coutinho
Linc
aplicada
##ilvânia
Mist
Luther
laboratório
Canções
classificados
companheiros
Arena
Inside
Cidad
##osh
marcar
CN
Nab
##vidas
##icadas
Graça
Step
envolvido
Florianópolis
ín
alimento
Estelar
Marx
##ultores
decorrer
Jay
##just
##haus
antic
##órd
verb
divind
obtido
extraord
argumento
Póvoa
##hm
##perm
infantaria
abastecimento
Gaz
export
Constitui
Lamb
##ymp
##abe
Christop
primavera
##iant
##elt
##able
usava
assassinado
Vin
compens
Grão
listas
Cinco
cavalos
fechado
diminuição
comentou
cair
Heav
Baixa
zo
acol
Impera
obrigado
##efas
Boeing
##eton
##culares
sucedida
rosto
##rível
espí
aristoc
Sergipe
Dir
lazer
tele
Homens
Vermelha
queim
formaram
##guaio
##gregação
Newton
Cama
##apso
off
##post
Old
interag
exercer
Tanto
##azes
externo
revisão
Macedo
##ográficas
micr
cavalaria
Gregório
probabilidade
Mons
Tenn
##vila
##bour
##jan
##ipa
Todo
dentes
##rocos
##onos
templ
##tividades
morava
fracasso
Beauty
##anz
##etto
Baby
##yat
tornado
##órum
terrestres
parlamentar
Fi
Prado
##adi
exposições
conhecimentos
tarefas
eleita
Espor
##ESP
substituiu
numerosos
Func
gosto
Santar
salário
Convenção
Administra
Labora
MHz
trabalhava
traduzido
sessões
##êmea
##omot
destinado
convidados
administrativo
sangu
Cine
Difer
##cal
Recre
quaisquer
folha
esquema
Alentejo
##gios
##alas
reputação
estabelecimentos
Kevin
Educ
tol
That
reservas
Fant
Gav
Hop
##olar
Montes
Técnico
engl
indicações
instruções
##ugosl
Journal
Pé
##acidade
primeiramente
Pt
##kker
Luxemburgo
Marac
##gên
##hadora
centrais
Maxim
##athan
Cavaleiros
coloca
executar
Kob
treze
compreende
Fél
Gestão
Patrick
Gordon
gama
cot
Clemente
aparelho
Lingu
caminhos
Espada
comunista
Exempl
claramente
fenômenos
quentes
aldeias
Maj
civilização
Ya
##erativa
##ezes
Qual
##ndez
aglom
Austral
possuíam
término
Nass
Náp
bro
##atórios
primária
sentimento
côns
##imens
combater
Darkness
Metro
emissão
conec
encontraram
teatral
racional
Marítimo
disputada
belga
armazenamento
cilind
##éf
diário
delim
destacando
##rés
##low
cargas
##ónico
profunda
montagem
Juliano
##iclop
Trindade
sugere
Dur
Fogo
Jab
Alg
Prote
##nesto
River
##áquia
Amaro
distintos
embarca
Virgínia
Ax
autôn
explicar
requisitos
hotel
Marcel
Faria
supre
contribu
##manuel
##ertou
rigor
causada
algodão
gigantes
auxílio
Batalhão
Jimmy
vib
##ienne
judicial
##erfei
ouvir
oportunidades
recepção
rádios
Hart
dorm
jura
##esis
##anismo
adição
Conforme
juntar
impression
##impí
##EP
Mendon
paralelo
fantasia
remanesc
beijo
##quenta
entusias
existiam
Flávio
Thor
Humano
Navegação
Pov
ópt
explosão
##issem
Lady
xadrez
esteja
Road
Agora
Atu
##ee
##mão
##anus
##eig
Ernesto
Atlântica
Goldberg
Capitania
Nápoles
Gam
##TC
##obio
regulares
Shar
Setúbal
Otto
Dod
massas
interessou
típico
Gin
##ongo
divididos
aéreas
##égios
Miller
transferiu
Kö
##erap
##tora
conversão
Executivo
##rinos
##iche
colocados
##riamente
##gane
projetado
operado
Aqui
mi
##ulc
ades
Chin
relanç
reduzida
Russo
defendeu
manob
ligadas
mundiais
literário
Rolling
##iscos
##áutica
protestantes
Pam
domic
violão
neve
##yer
modernas
Roll
básica
adicional
Ganh
sociedades
rumo
##anch
interm
Mah
trazendo
introduziu
judaica
subsequente
marketing
Meta
páss
##wick
disposição
desenh
noturnas
Science
álcool
Dun
Key
##eciam
##actos
##lau
carvão
descritos
talento
candidatura
classificada
distribuídos
BBC
cães
contribuí
##phy
##ábia
##ássico
reuniões
##etts
DJ
Flower
visível
Britânica
escritório
Regimento
russos
Aguiar
Constantinop
proximidade
Densidade
##erias
##ourinho
Casal
sabia
rodas
##ásticas
financeiras
Osw
Angios
Inverno
lec
##entares
ocor
Presidentes
abandonar
segmentos
ingressou
artificial
liderou
Inglês
portal
term
##ericórdia
DO
##ilies
alternativo
CH
dil
Luísa
africana
chineses
Anne
##iterói
Cub
escap
Gray
similares
aprovada
adolescente
Niterói
##ben
##ifa
catálogo
mudaram
Fun
cemitério
Ord
Interc
metais
Beatriz
surpreend
Jar
tomb
obsc
consequências
capitais
escolheu
flora
Monten
variante
reduzido
Hamilton
agradou
Félix
Prades
errada
Fábio
piada
Paraíso
Agostinho
Divers
Wilh
rocha
##fra
nomin
menina
Classe
ISO
concedido
Ronaldo
intérpre
Quer
Cald
dinâmica
dedicar
jurídico
hino
##heim
##uição
Rey
Team
Personagens
Sofia
eficiente
vog
gravadas
Wild
playoffs
Mendonça
##embl
##achus
únicos
tropicais
uru
##lei
##ratos
repórter
possuindo
Ocup
pensar
asteroides
Digital
periferia
sepultado
##ils
##ículos
##ídios
Regist
ensaios
designada
colega
Benjamin
Master
##ólia
Santuário
digitais
amante
enz
profissão
gerações
resultante
Harvard
PSD
Last
##kan
##enza
Apple
atribuída
ora
complex
Tap
exerceu
idiomas
Soyuz
Constantinopla
Yu
##queiro
caracteres
Direitos
pretendia
alegando
secundária
Mind
##IM
##tomano
Comb
nossos
registrado
magist
contribuições
Kor
pian
tamanha
perfil
positiva
cerco
##enhas
expressa
experimental
##rier
conto
barra
Billy
##ionário
##pool
excl
##ylogen
dúvida
Tech
png
##ardi
##aya
francesas
Políticos
cabelo
Mediterrâneo
##ixos
econômicos
Luciano
ferramenta
##omy
forçado
Diana
Agricultura
Nascido
Panamá
gigante
Ky
n°
imun
vencedores
suspensão
intelectuais
tort
##magem
##alizou
Roque
Legislativa
iluminação
Over
lendo
##egan
comunistas
publicadas
interpretando
Dil
EC
GT
Stal
##ídia
##anã
tronco
fortaleza
Ple
oral
adm
reperc
Polónia
escolhida
Navarra
Fernanda
##ropolitano
átomos
Nag
Salão
Eis
##guês
##unar
##ersa
##worth
##jara
escapar
promulg
Vietnã
Dut
Lt
Naval
especialistas
DD
Gor
Kelly
sétimo
Pradesh
bela
parecer
Tomé
fibras
Chart
Angl
Caldas
##rense
Memorial
##acre
ativos
Mans
Flash
morreram
típica
Gara
don
colunas
caracteriza
separados
residências
mix
##inois
frequentes
vistos
restauração
tratados
lesão
predominantemente
bibliot
esfera
chance
escravidão
##anti
##ornos
Compositores
Anal
##rong
gravados
Presidência
Bent
map
contas
Sonic
excluído
##ódromo
necessariamente
Dinastia
Pictures
Squ
buscar
Lang
##entino
localizadas
Direção
deixado
Donald
platina
Hid
lam
seguidores
##iki
USA
##iveram
##inossa
##gráficas
retirar
Queen
paixão
publica
Mud
compõem
Paquistão
##éricos
##urec
acreditam
Tiago
##ois
##acia
##azine
##érnia
curios
peda
derrotas
imediato
rebeldes
perguntar
By
Oz
##boy
Canto
##tra
##taria
##MG
Bund
reúne
##guaia
Elst
imigração
junta
Armas
editado
mexicano
sábado
Sig
ileg
íd
##sula
dirigir
Leonor
Ip
Reforma
amplas
Piem
##bit
##idge
Guar
##uído
vendidas
junção
ricos
##alhas
especializada
mister
concedeu
Cru
##si
##cy
Arra
quartas
alien
indicam
centímetros
crista
facilidade
Campon
provenientes
opções
dizem
destacar
##lines
cumprir
Kra
##sin
##oln
personalidades
##ídeas
efec
africanos
Testamento
##quel
Laure
##vre
passos
Leopold
ofereceu
nascente
Jerry
ferroviária
Leopoldo
Lec
polonês
descartada
Exemplos
Vall
Vilar
Za
##utt
seguiram
Américas
chegam
estabilidade
Dog
Itap
bomba
##uer
fome
exil
sacrif
Doce
Trabalhadores
Orquestra
##öder
conferência
##ramentos
##riga
##terr
Sala
##eyer
administrativas
benefícios
canônico
crescer
adaptado
##onésia
viúva
soberania
Ident
Manh
Tejo
##erfeiço
Minha
Pomp
##tm
recomp
médias
gene
dirigia
Dion
##erso
cinquenta
Ferrovi
Motor
contemporânea
Indústria
Aj
feijão
pontuação
ensaio
fiel
##ticas
Paço
armada
vegetal
proporção
Chel
tocando
Iguaçu
bil
vídeos
pasta
baseadas
conseguindo
##ísta
Moderna
Peters
##eliz
nomeada
baía
falantes
embarcações
Vaz
depressão
Democrática
Santarém
exame
##érs
paciente
deverá
Gö
sho
Águas
##uladas
Mae
autorização
percussão
singular
Virgin
fabricante
chapéus
Armando
Novas
aparente
visitar
internas
exportação
primário
Elis
Regina
caracterizado
Leiria
##teb
barrada
confirmou
Sérvia
relato
soberano
lab
##egal
criaram
tribunal
Juiz
mach
##arial
##inou
##iang
positivo
Ref
convento
Phylogen
Hum
Mim
##anga
parar
Espacial
Legião
Mega
##gico
##gênio
##atinga
despre
internos
semelhança
disciplina
verificada
Abd
revelado
Rural
Aldeia
jornalistas
ferrovia
Britânico
Guarani
prisioneiros
frust
##orp
##iane
##uindo
mosteiro
Massachus
Cortes
blu
pir
##íodo
turístico
acontecer
vasta
##wen
Carey
Prom
Cot
Sib
Tuc
insetos
Singles
prestígio
##iá
##rativos
noção
esclar
psicologia
##anthus
arrecad
up
##stad
Morais
concluído
##ures
marx
pede
This
sentimentos
compositores
Músicos
concluída
colapso
extintas
Moz
rotação
demográfica
envolvimento
gerando
Asteroide
##nfase
hierar
acentu
Massachusetts
Kara
Piemonte
Did
Pur
Várias
##biter
Estrang
matérias
Ade
ganharam
Gast
gases
mis
incidente
agropec
animações
Gaspar
##andom
interpretada
sozinho
Illinois
governamentais
datada
hebra
nuv
##tic
##pagem
##illy
##shire
honor
diocese
aquelas
Musical
Institute
químicos
Christopher
Evol
Tup
homônimo
largo
absoluta
Like
za
##rária
##ulose
conquistando
pastor
elect
prep
##plas
##ally
Cândido
FF
Row
UK
ortodo
Portugueses
Wagner
antecess
##ituras
visitou
discíp
Originalmente
Det
privadas
iniciando
Gaúcho
Tornou
brincadeiras
fósseis
degrad
Wilhelm
Piren
cren
mun
##yst
##erac
AN
Pag
pisc
##ridade
Olymp
Bei
anteced
Havia
##head
baseia
aplicado
Cavaleiro
profundamente
Monumento
embaixador
percepção
beira
##nio
##erano
##roso
acúst
Franz
Milan
chamava
Sistemas
Corporation
##aração
estiver
conheceram
construtores
AT
Vocal
acamp
acusações
pet
##sal
##opi
converte
repert
campus
##érmicas
ambientais
Work
vistas
##arinense
##entr
##udos
suicídio
Cort
Ós
divert
património
Sarah
circunstâncias
Ein
nad
##jada
ossos
pleno
armadas
Cesar
tric
Vaticano
Valenciana
Pine
##onês
Dallwitz
Filipinas
Dic
UNI
tet
gradualmente
perderam
numerosas
Pab
Redo
##adeiro
Prima
Desporto
jogando
##gred
apoiou
revis
organizou
videoclipe
arredores
automat
evidência
Ocidente
##rô
##pin
##iko
somb
jornalismo
Dance
Memória
vilas
Caio
Epid
Armadas
Goiânia
pend
rivais
##coa
Church
publicidade
##jes
comentários
##rião
vindos
htm
alinh
eleitores
elaboração
Pse
leu
##ntend
##íticas
atingindo
Menezes
Tinha
escultura
determinação
circund
##nie
##omen
aliado
elíp
Lincoln
##imidade
inqu
adulto
Infant
aproximação
privileg
sacerdote
ênfase
##eland
estrearam
parcial
Virgem
interagir
rat
##ptos
##aren
datas
##rash
procurar
amarela
Todavia
Nós
RA
Teles
cach
astrôn
remonta
##ych
conect
##étricas
Phase
reunir
adolescentes
reconstrução
célebre
inscrição
Lapa
##key
proposto
matando
##énia
restaurantes
##ronomia
Modern
Kh
Salama
patri
Golden
Irons
Tub
##ès
Histor
dívida
Wol
##empre
anarqu
passagens
servindo
##remadura
aprender
Families
Toy
Kennedy
Tira
##oeste
observou
Epis
SO
Paral
iniciaram
familiaridade
Morreu
Zulu
anuais
chil
concess
abordada
Cron
ES
Xuxa
##oy
acom
Guia
Exposição
parceiro
envolveu
Irã
##anema
##irit
Barry
mane
Palav
atendimento
manifestação
bombarde
Hub
Line
##vado
##ige
acidentes
Guatem
Castel
cópia
vertical
##iciário
Jordan
##rida
infec
maneiras
Airlines
encerrou
Total
Phylogeny
bit
ros
##UR
recebem
dispõe
femininos
Sempre
Algarve
Bulg
##omé
##urre
capita
afirmam
Museum
##vid
##aste
compilação
compostas
altar
Brangane
##eiga
trag
extintos
Perd
##udeu
Whit
Yama
propriamente
##ussões
garota
literalmente
doação
rodovias
pronunc
Montenegro
##ionista
##avas
##estras
incons
ornam
trânsito
linguagens
declarado
Televisão
reele
plena
Eurocop
garantiu
regularmente
Claude
Ród
##tz
##ramar
##eback
franco
Superman
precisam
emissoras
fábricas
Número
Mast
Ub
parecem
##inheiros
Laur
perseguição
Aparecida
##rand
María
gravidade
câmera
poderosa
Timor
frases
integrou
Hand
Acre
music
vivendo
Magno
Honra
cruc
agregada
Continental
Pla
##guarda
imposto
Kurt
Emil
Caç
memórias
DS
duc
##vial
traços
##éditos
morar
Charlie
afluente
From
Viva
##mand
destinada
fundadas
##ción
Oficiais
confusão
##icional
polin
cabeças
enviar
Ado
Boca
Tch
verdes
extensa
considerava
talentos
eficiência
jesuítas
Chec
crom
##iflora
independentemente
Mul
Rica
continha
procurou
censura
Republicano
atrib
alemãs
coletânea
Terceiro
##entava
Novos
##yp
##eibol
##reak
surpresa
interessante
Democrata
Soroc
##gus
##omenda
previsto
licenc
amaz
coloração
extração
acabar
originou
atrações
procedimento
mecanismos
Win
radical
Basílica
bispos
##iara
Camponotus
vin
##PS
operacionais
diminuir
contemporâneos
desconhecido
PMDB
Bola
Gent
Marsh
decad
famosas
adquirir
crenças
Well
##acar
modificações
caem
Marav
estimativas
membrana
##zan
##itter
espont
ideais
receita
sigla
##ED
apost
Abel
eficaz
Minho
Om
lidar
##belec
diagnóstico
Vên
ves
vér
##enzo
postura
Carlo
Shin
pioneiro
complexidade
Mob
##ipse
Fabaceae
assemelhava
##FTA
##ebe
inferiores
significativamente
Flowering
##ox
dispara
pedir
Passos
ampliação
repertório
uc
##evo
complement
Franklin
Econom
efetivamente
neerlandês
Curso
perturb
associadas
##iador
##erma
Guy
maestro
genética
conquistado
obtendo
Russell
Maz
pent
frequente
ocasionalmente
rebelião
estivesse
continuam
algoritmo
Tito
restrições
PLS
##wski
vizinhas
Baptista
Bett
Ral
##rame
sócio
Noroeste
Povos
gros
##rell
##GA
Ath
CON
vegetais
Tou
Bil
Ávila
##eni
##egas
submar
profundo
rotas
Syd
soldado
ment
plástico
biografia
Eur
Gill
Jenn
##rama
##laus
Alma
coll
guarn
dona
anat
salários
determinados
pecul
semifinal
ignora
##elagem
ater
##tory
Isl
ganhadora
##oneses
##eições
##aturas
barco
operar
Formação
telefonia
tomando
Planalto
Within
Bry
Kon
##antos
marciais
sentiu
socialista
romântico
cooperação
cód
Information
Espanhola
Lanc
mart
rosa
##IL
devolv
Mauro
pesco
arbit
gostado
##enne
estável
servido
Guatemala
Jem
formados
aprovou
Apo
##úrias
##ree
##ector
##istia
compor
Pelé
mercadorias
consenso
##imamente
habil
caud
basquete
ministério
senh
oriund
asteráceas
cidadão
Transportes
torneios
Supercopa
Bass
Sintra
umas
##imal
##eleções
Stewart
roupagem
Aga
feu
##liga
produzindo
Erik
Scar
##zzo
##ño
##erda
console
Magazine
Descob
##gum
Plato
Indiana
empregado
pudessem
síntese
fio
assumindo
##ápolis
alterado
mencionado
monumentos
desenhada
ligeiramente
sensação
extremidade
penas
sítios
down
seguro
épocas
##reveu
Japan
fracass
Rogério
Gustaf
##família
##oshi
##led
Forma
funcionar
privat
British
Aeron
oxigênio
pianista
Estremadura
adjac
subiu
Graças
Assunção
barro
ocupando
##rariamente
Juss
graf
Decl
provocou
Juvent
##legal
##ênis
Henriques
soviéticos
##feld
##tantes
desigu
pereg
Arque
##gações
cinemas
libertação
variados
##alos
vivam
conjunt
certificado
##hua
Marrocos
cantão
protestos
emergência
Vladimir
##itic
Poly
vilão
##MP
combo
reag
participaria
##IO
##ocação
visu
Enemy
tenista
Brux
Turim
escrevendo
Lugar
Ker
Deut
Carm
Foz
Boys
janelas
procedimentos
Darwin
observações
NO
##riqu
Mick
##ilas
comerciantes
reconheceu
antecip
eletromagn
cão
lua
##andra
clar
polar
##inaldo
administrador
quadrado
estrutural
aventuras
sonda
##âmp
recorr
indicar
Latino
módulo
##oito
##eteria
Comercial
Malta
State
automobilista
Misericórdia
##ader
##role
Pré
cartão
Almada
##kespe
Wrestling
fiéis
Produção
favorável
holandês
servidores
protet
Autom
edificado
substanc
virtual
côm
##TE
##amental
##atum
Franca
curs
comemoração
tirar
##eixoto
Garc
laranja
##vido
##DC
Leo
Eddie
mexicana
Fen
Peixoto
Söder
caracterizada
legais
gráfica
Our
##ely
induz
limp
potências
crimin
Luzia
desmembrado
Óscar
expuls
Goul
tentada
##umbi
Eurocopa
Ian
##énio
Celso
Arquivo
Apresenta
templos
##uxo
##tata
##oku
Simp
PSDB
Bás
intenso
Herbert
adoção
##aldi
Toda
opiniões
objectivo
##xi
##xia
depos
##idional
mundialmente
atrair
Bulgária
ucran
Auv
bico
##itável
polo
referem
protocolo
inspirada
científicas
wh
aspira
aperfeiço
governante
negativa
Golfo
meteor
hipo
##lag
portos
##pop
agrem
marcados
legit
elétricos
Takei
Tet
##igamente
##agre
Aless
##ificam
ligando
Junto
##ijo
Solow
básicos
Hyp
##ógrafos
Fontes
perigos
compôs
##ferências
atingido
vinda
##ariado
##esseis
colocando
urbanas
temática
levam
difíceis
pescoço
Beck
##ss
##índ
##rilh
Adriano
delib
rode
Whoopi
melhoria
##mentação
Constantino
Books
Normalmente
sum
##ionadas
produzem
pertencem
disputas
Ermida
afirmação
Milit
dramaturgo
##aranj
empregados
doutorado
pão
##tória
##anna
almirante
colomb
explorar
revolucionário
sl
vs
Distritos
Syndrome
insp
Engl
reconhecer
Côte
##net
##zig
dispens
liderados
enviados
sanguín
Pá
##bor
maç
sentir
vizinha
Chronology
pá
espaciais
Media
científicos
Mercado
vizinho
Flu
plural
##erick
transmitida
hero
ton
versos
britânicas
Stef
Concílio
Governadores
esperado
Mesquita
assegurar
Cia
Marta
completou
costumam
Vai
##ópia
cere
vulcano
Acredita
Cris
Jard
céus
fêmea
##eration
##ambo
##ellow
mito
semin
abd
##heco
Andy
relevante
brincar
semifinais
subdivid
Angiosperm
ala
alum
insu
barão
monop
abandonado
entendimento
Zoë
arqueológicos
adolescência
##senal
polêmica
reações
ans
##vey
##inton
fauna
##lováquia
Guitarra
Humberto
Má
estética
retirou
pedag
acabei
permissão
oposto
toca
metro
Silvio
Poaceae
trigo
Córd
Publish
segredo
##bury
prédios
consigo
subterr
Ródano
Pec
dita
vêm
actu
indicada
Lacerda
aprendizagem
explicação
transformada
transmitir
sólido
pretendidas
chefes
estrelou
Syl
##rigo
##unn
instrução
palm
demissão
Maced
adequado
ínicio
nacionalidade
fos
Olimpí
integrada
facilitar
Dura
Eup
Poetas
voltando
Concelho
##acote
ganho
esteri
Caribe
igualdade
receitas
Pirenéus
Tric
##enstein
escultor
esperava
derivados
Tij
diretoria
transferida
Apl
Fat
lob
trio
cerâmica
cantores
australiano
bactérias
Drum
sér
Às
teologia
incomp
Romênia
Movie
húngaro
Prev
##isma
##ots
financiamento
transformado
dublada
deserto
##âmicas
permaneceram
Album
##oresc
agric
cuidado
##letismo
legislativo
Biographies
DA
Denn
##sburg
##omite
voltaram
pesado
velocidades
Shakespe
Stanley
parad
##istente
desativ
Maneu
Período
nascidos
apoiado
explic
legado
sexuais
Benedito
Córdova
Tá
##mica
diretores
separado
##úrio
##rante
certeza
Leal
definidos
Indonésia
Justman
impulso
escuro
Serviços
muralhas
Lenn
Vent
Xbox
ench
##ograf
Legend
cavaleiro
automóvel
prost
Figueira
económica
##ugoslávia
Bara
##umbo
voltas
falado
alcançando
esteriótipos
Maneuver
Telecomunicações
##ntismo
rendimento
totalidade
##piranga
destruída
##malm
##PE
##itoria
escând
milhas
convidada
Ronald
convocado
Hamburgo
##children
modos
Antár
análises
nervoso
Jemison
Hö
móvel
##ticos
##bus
##elada
leitores
saque
imob
Granada
redo
presa
##ónicas
determina
gerado
Julienne
Stepchildren
##omi
inoc
##anche
angios
Nadu
Faro
##ulata
##ócitos
Semin
provincial
desenvolvidas
publicar
possibilidades
diplomata
Corbomite
Pir
##NG
matou
influentes
##ácter
Lúcia
cinematográfica
Umbha
Shakespeare
ób
##róf
perdas
voltado
trekker
mensal
Ruark
Rotsler
Nazaré
Enteados
IA
rab
##asco
##igl
Steven
##landeses
Hud
Sto
cess
##ads
##íncipes
planalto
internacionalmente
foral
##ículo
variedades
Couto
Cavalc
Gonzaga
##zano
##otte
aquilo
dependência
concordou
renunciou
ilegal
lagos
##zio
##alu
##inamente
mau
Florença
Pát
juvenil
##pérmicas
estatal
##veja
Marechal
carácter
encora
simpat
marcha
Liver
permitia
agraciado
Guerras
deslocamento
Ficou
Vou
##pel
##ulando
##atado
seguem
Chann
concreto
aparições
prosper
aren
##ová
consta
##elhado
estréia
estrangeiras
CS
Fim
##fri
##etização
reab
repressão
##ocidade
prazer
Renault
denominações
Earth
velhos
##tava
##agi
aplica
Olímpico
bebidas
om
envel
pouso
Indian
Berlin
magnético
eliminação
Metr
associações
tribut
Ação
Tram
mos
árb
Estê
parques
negativo
festivais
frutas
cerebral
Södermalm
NFL
Ving
aparelhos
tentaram
mandatos
Stuart
consistia
Toma
décima
Hein
nucleares
##vios
atuava
índices
##back
dezoito
aceitação
Eth
ria
tard
##core
lesões
##altis
Goulart
UN
grá
Ára
##olicismo
poleg
##osaurus
percent
dialeto
Adams
Ludwig
##ontinental
Estêvão
##ache
##rital
estimativa
##HA
quântica
surgir
confirmado
Avel
Cit
##alizados
##iolog
##venções
Dubl
nórd
##emento
##edoria
##artar
recusa
voltada
vereadores
horizontal
Nep
tru
Árv
##uitos
Perfil
Pale
Regiões
trechos
determinadas
culp
Álvares
fonts
Ki
##ône
planetas
básicas
tendem
jardins
##itariamente
##ulus
##atre
##dont
##ramas
metod
fuzil
##rive
Ing
modalidades
Soul
Reserva
tubo
##icato
Universitário
Sak
feridos
desped
cacho
Stadium
Sede
Pau
semestre
avó
chegado
mostrado
influente
adotada
##ográficos
Lil
Oliver
Taqu
jurisdição
Epidend
Cod
dren
##ugby
Acc
##house
Houston
Blood
Kaz
SD
##eley
Afegan
viajar
absoluto
tanques
##úrgica
Paixão
queriam
vagas
fazê
surgem
First
Lap
fff
##ango
corda
dezesseis
únicas
trens
Córrego
Pombal
múltiplos
reeleito
férias
##erem
enquad
lançadas
Cruzes
Gary
Testem
Pensilvânia
##alena
##rágio
estabelecendo
anglo
fontsize
Judeus
Sancho
sit
##unais
conseguido
destruído
fortuna
magnitude
predominante
Potter
Found
Afeganistão
Gius
##taceae
atl
Mau
afil
visuais
salão
servem
Simão
blind
demitido
causado
restabelec
bolsa
capitania
reorganização
Igrejas
##pur
Sacro
##rópole
##ople
apoia
relógio
latina
Iniciou
Liverpool
##rence
##quin
conselheiro
Matemática
Patri
BAFTA
padroeiro
Auvérnia
bin
##pol
##ichi
Menag
roupa
Field
##erando
outono
##ilizar
falhas
##eppe
enfraqu
Broadway
biologia
##êa
##orum
Beb
Ont
Orle
pous
Artistas
comparado
Gig
nu
##egre
metrô
compromisso
Fantasy
EMI
Pitt
euc
##iú
autobio
Vegas
##palh
##entadas
##iness
##useram
Taxa
promoveu
efetu
##ólicas
celebração
fotografias
desencade
Vest
ond
##ain
Organizações
aguard
CBS
recolh
Aventuras
conso
entradas
Palestina
Recon
separadas
adversários
republicano
Fria
More
medir
Escolas
Nasceu
experimentos
Núc
feri
gent
##hop
##andu
Chamb
desenvolveram
Eleitoral
litros
observado
Philos
dramática
##ll
preval
##íno
aviação
definitiva
precisava
fixo
pretende
incorporada
##uber
mineração
planície
comandos
Moseback
Sports
dançar
lucro
Bartolomeu
encerramento
Mosebacke
LGB
Sei
missa
Madalena
Arts
estiveram
##úr
lote
##ways
espectro
desafio
Salamanca
ida
##eder
Emmy
participando
Wars
teto
representações
##etermin
Kill
Pow
ícon
##ische
Herc
Rous
Tipo
Rebel
Alva
##ember
Cristiano
estrelado
virou
virada
Brás
Hat
Swe
Feminino
Menagerie
soviética
##cer
incluíam
costume
Isaac
Caixa
coadjuvante
Rain
##atorial
pênaltis
Ost
lus
mira
Pró
Hend
Unidades
Energia
alcançado
lutou
Victoria
decorrência
Nan
fura
##acas
##egos
irlandês
Bond
sertão
múltiplas
Epidendrum
Eti
Hig
##zea
persa
contratou
levada
##élico
cantando
registrou
dinamarquês
inspirou
endo
##tero
rema
Rail
Independente
##ocarpus
aposentador
Gustafsson
##empo
Gradu
Alcânt
Prost
##úrbios
Ruth
##lton
diálogo
Vere
Berk
##roup
Quase
Delta
CT
Job
desn
##rosc
##gata
promessa
géneros
isolamento
renovação
concorrência
Kam
##bar
apartamento
vantagens
Hisp
Nenh
RE
##fato
Joel
##anger
legend
##yler
complexa
anúncio
##oster
enterrado
Francês
Palma
##ficiência
economista
Pablo
Tun
##avor
##heta
invenção
naturalmente
Sardenha
Sign
barcos
transpar
coleta
demonstra
telefone
ensinamentos
Rico
migração
desempre
cama
Baker
Rubens
Two
fiscal
##furt
descar
cantou
excesso
contínuo
garoto
Ohio
ancestral
Sydney
Onde
válidos
Research
HD
Lost
Param
rol
tig
Éd
##zos
##ôma
##eradas
##ambu
disto
condicion
sentença
socialismo
Noronha
IBM
##macêut
Priv
Sop
Edifício
bilheteria
encerrados
nó
##izador
##deais
Abb
della
Fair
padron
Espaço
Cost
positivas
diant
coordenadas
decoração
Giuseppe
Junt
terço
Sales
fechada
defende
erud
ritual
ses
##jin
##estrado
regresso
##oko
sabor
satélites
Premier
Calvados
##urreição
Ey
Hidro
Tara
Under
##ódia
libras
Chev
Global
##bell
monet
Ode
Xang
##atan
##eux
Colorado
compositora
decidir
roda
Russa
venez
Constituinte
Vitor
pic
##ms
##oriano
aprim
acons
Arábia
Medeiros
Myr
acompanhar
demonstrou
sobrevivência
Álbum
timidez
ínt
##OC
##ustos
##rary
Usina
Zen
##gam
##rega
pront
presas
Exemplo
transportes
sediada
Georges
Eul
##antar
Inoc
Queiro
brinqu
URSS
gui
##RE
##quil
##usões
##estrada
respostas
melhorias
Divino
Juventus
##piter
##anco
##onização
##hand
pontes
sequências
químicas
Online
##óquias
primitiva
assinar
cenários
##retas
lutador
Alcântara
raro
Salazar
States
Germânico
Gian
pistas
parado
##ogl
mantida
Júpiter
justamente
Sind
pacote
##isos
estím
prel
distribui
lançamentos
Instrum
##valdo
assistir
Born
##ionistas
##oportos
assinal
Elvis
realizando
essenciais
Empresa
pioneiros
Brandão
controvérsia
Bri
Mong
##ller
##xá
embal
##orrido
elíptica
Aviões
consideravelmente
Edgar
ordenado
Psicologia
##ômicas
estreito
sucedeu
Ambiente
acessórios
Índias
alumínio
Cross
cheia
praças
Hardy
lay
odia
##erton
provém
habitada
penal
choque
Chelsea
Age
Varia
desac
##ibi
##gala
sonhando
desconhecida
Games
##ôme
##ird
Naquele
Sociais
Andrea
Complexo
remix
##árzea
##argento
##sc
contempl
Estev
usavam
créditos
medalhas
exige
supervision
##ías
##rasse
Asc
contratos
Ort
Martín
universitário
Animal
grãos
Ganhou
##gy
##inando
##resse
paulistas
Wayne
dedica
estil
Campus
Techn
##ped
##iod
umidade
repl
serp
elevadas
##ebook
##onentes
reenc
Espécies
restring
pacotes
variar
Harrison
##hin
acção
abertas
Atlant
linguística
Negócios
compreender
##urique
acordos
Bruxelas
##etismo
##ards
Início
imag
Malv
instrumental
sétima
Ato
Jama
túmulo
equações
divididas
multidão
garantia
prejuí
Bacia
têx
Baix
##ívio
Barcelos
Valência
romanas
mestres
Cascais
Dj
Fernão
Passo
bicam
##inu
##tors
Perman
sofist
Terras
coberta
separada
Nascidos
deslig
cig
fant
exam
magia
fragmentos
##emat
##racha
instalou
Lawrence
Iron
Oper
abertos
##ayashi
paralis
bá
meias
tut
##ristas
perig
##andas
increm
Queb
Confina
Províncias
inteligente
##ents
##idiocese
entrando
##ésio
dispers
progressivo
##iclopédia
##ulgar
##atário
espess
cinza
vales
List
Knight
Urbana
coincid
##ássio
correr
Venceu
espetáculos
Maracanã
Again
##émica
condec
manual
Flag
Bah
variantes
McG
cavaleiros
respectivos
##aparte
##únel
listadas
vingança
aposentadoria
Leandro
irrit
concedida
oitavo
proveniente
anfíb
Cens
encontravam
Carter
reed
visitas
discussões
percorre
tivessem
demonstrar
auxil
Notícias
##íria
decret
agências
##essee
funcionário
Pontif
certamente
Wern
faria
##emias
nomeados
combates
Blues
ocorrendo
Beach
##anchayat
##ío
distâncias
Praga
##tona
queima
Guiana
##eirinha
aceito
variadas
fornec
padres
tabul
Lins
Sever
otim
viva
##imi
##eranos
##ônima
Coorden
controlo
Profiss
Marshall
Run
Ted
peru
##erne
Apro
Augusta
adequada
medicamentos
panchayat
##mus
##inidade
Justin
Jornalistas
teclados
afluentes
##edra
Seis
Lep
cirurg
Simpson
estou
Now
conseguem
Extra
historicamente
Km
##eron
##gui
Cardeal
relevantes
dependente
Editorial
LGBT
Cá
paras
##agres
patr
descendência
Bec
##ilhos
##unhas
trilhas
definidas
olhar
radicais
psico
Procura
proporcional
McCart
Plata
feiras
Cook
catedral
Teres
olh
##fund
administrativos
Missão
Sold
rituais
Grant
##ílico
##ariedade
linhagem
Bateria
classificadas
Tennessee
Lock
Arnold
Mack
actividades
residente
Parker
##uren
Four
contratação
peito
Jogador
ouvido
Lagos
##zim
Marina
contrap
músculos
Poesia
rebat
Rubiaceae
##ÃO
Tex
navegador
hábito
##stone
along
atualidade
neo
Elias
apareceram
precurs
##iqueira
Irmãos
senhores
Ges
precon
##ísseis
##ingue
transformando
amostra
Bog
##inville
##izaram
filt
batizado
despesas
IT
tamb
oferecido
significando
Tommy
atmosf
Vik
##ulam
pret
##ief
Grac
governadores
bandeiras
Revolta
Ryan
Francisca
esgot
Horta
omb
##erl
Theod
mineiro
evidente
glând
Wes
##utivo
totalizando
estrelar
Preta
##idalgo
PE
Pink
pau
Astúrias
Bonaparte
janela
##quetebol
odiava
Sed
Vít
##éns
comentar
formatos
apresentados
Larry
Viagem
vereador
##rugada
Chip
obtenção
René
atendida
Say
##ildo
temporariamente
Café
cabelos
alternativas
romântica
Italiana
holandeses
elegeu
prestig
McLaren
Channel
Dre
sites
tap
##quinho
##irá
Mercedes
preench
Bez
noites
Marília
secreta
adotar
Corrêa
ofensiva
enferm
intérprete
CM
Síl
contest
prémio
Amigos
Mang
##âmicos
mandioca
procurando
asteróides
abundância
Litu
Nilo
judeu
##ilt
encarregado
molecular
AS
##hara
##iper
Perry
Loir
permitido
tributo
obtida
Babil
adesão
Must
couro
##mante
Mathe
camponeses
##íduos
premiado
Seix
gótico
dedos
##iani
formações
milímetros
Paroquial
Excel
determinou
Magic
eletricidade
relata
##wi
##idimens
indicando
##ucano
estatística
lembra
Lorena
santos
Tama
arcos
Castell
Volks
azuis
Línguas
Primavera
##ogn
terminais
senso
futuros
Bueno
Extre
convencional
Petrópolis
Núcleo
jú
Valle
##óteles
Dinis
Prince
Aristóteles
Coc
##arto
inib
impresso
Podem
Jazz
##ivodia
##urna
Plane
perceber
Summer
Amara
##iger
##rett
##dorf
restaurante
exclusivo
##isfério
Illust
Queiroz
Dim
Versão
dinossa
##ouras
##guinhas
Emília
##ícula
Análise
##ópicos
Shel
Portela
jornada
Mom
Rach
une
Copas
##ábria
Barroso
Kansas
Saldana
Gul
RPG
fundar
úmido
Rid
fla
Conjunto
joga
agir
retrato
##ossist
namorada
Fame
Never
Tat
##rate
##maras
##ósio
Antunes
Ortodo
turco
Raw
##tin
Claro
##aux
Brun
conservador
ferroviário
Imperatriz
##adel
Advent
discrim
Trin
consumidor
Rondônia
Infantaria
##idu
##ornia
Avis
cartões
consumidores
preparar
absolut
logot
defensor
concorrentes
Girls
padroeira
fres
##esca
reel
regrav
preferência
Artigo
animados
Falcão
Revolucion
va
##xual
escav
Sea
Produc
defensores
TA
pur
##çá
valign
daqueles
hierarquia
cv
##yu
##isível
perfeita
corrig
Express
arranjos
bibliotecas
Ariz
##sor
computa
Congregação
Jeová
introduzida
retirado
Pelourinho
viram
estágios
Adolfo
dirigentes
Dispon
Philosoph
##çosa
##ious
##mega
detec
orgânica
respond
esportiva
Alain
repercussão
AF
##çal
##itamento
nom
marítima
Silver
museus
##inosos
circuitos
contemporâneo
Nord
##ogên
##apura
salto
coleguinhas
tomaram
Single
Matthe
Dord
Wright
lento
##zentos
##riang
##ingham
Controle
McD
gerente
Penha
Michigan
Stalin
códigos
Cip
##ences
relativo
Urbano
Bod
##mid
##rera
alo
##achar
marcante
##ígena
Nash
##émios
abus
Copacab
partícula
tempestade
Ist
##vias
##burn
Union
Marinho
obl
consideração
Pietro
razo
concluir
adquirido
Cicl
Membro
contêm
designa
Desportivo
index
Battle
##éias
##PC
March
Polo
aprendeu
distribuídas
empréstimo
Copacabana
##yama
##elamente
plas
Herz
Genebra
tendências
orquídeas
mapas
cano
Joy
Semana
##ologicamente
mong
Shado
Phoca
##ânticos
acompanhada
Faleceu
inflação
endereço
GO
##âmaras
##RI
alter
populosa
optou
fraco
Bourbon
marav
Apost
##ópez
##oriamente
registrados
##portivo
Know
Advog
Oswaldo
Leu
Trist
pand
sor
##odon
##rice
estreita
civiliz
sagrou
Politécn
remanescentes
Céu
##oia
notar
Aniversário
##ificador
culinária
tomadas
dividir
##iliário
vulgar
##icionalmente
##ionários
infecção
constituir
Herm
Spears
tortura
Einstein
angiospérmicas
IF
Mada
lé
##wares
##alis
porn
pern
##érida
##issor
Daí
sinf
Lyon
Iugoslávia
López
febre
##oções
comer
cativ
Técnica
Hey
##araó
caridade
prestação
atravessa
renúncia
executa
Phocaea
##icaba
proteína
Dani
Pul
nativas
##ification
##testo
Cristã
Campina
Iz
dors
##gando
##ories
Alfa
Progress
pertencer
reconhece
capturado
##ct
##uke
##iato
enterra
marquês
visa
mudando
salva
mergul
Peixe
##enson
Colombo
dialetos
##úpula
##endeu
##bos
nazista
##bourne
Kobayashi
zagueiro
MO
##ła
##pora
contrad
fundaram
permanecem
Dak
responder
correspondência
Criação
Ducado
cit
##oque
temporal
autod
Edition
ilumin
substituto
##ishi
demonstração
protagonistas
esportivos
sobreviventes
adquirida
hábitos
Militares
oração
##yan
##otti
##chb
subir
convidou
Estudou
If
Otomano
##jão
ane
Inês
raças
esperar
animado
Autor
adicionado
teorema
luxo
tons
Tailândia
Frequ
Delgada
##dam
asa
Inaugu
responsab
Manchete
Cola
##bu
##adista
##idata
##evidade
cheio
convenção
Lake
Dipl
##rero
verificar
nascer
correta
fraca
Und
poderosos
aprec
alterar
Fórum
Linda
Nunca
horr
##nus
##PM
populoso
matas
Canada
Rodolfo
Bank
Frankfurt
cidadania
educacional
expectativa
seleções
##wich
##umba
##gren
mantinha
secreto
Buff
complementar
Passou
hidrográfica
projeção
sonhadora
People
Biografia
absorção
Heinrich
Tema
##eiri
##agan
externos
falou
desembarc
juízes
##iadores
##uli
divina
Artilh
significativas
Christmas
Water
quartel
coordenação
fabricantes
Dallas
Jus
MB
juros
desb
##moto
chá
Carmen
falecimento
governamental
Fight
RCA
teólogo
depósitos
coberto
Tratados
geometria
##sil
##arejo
Ah
enviada
rebaixamento
deficiência
ja
##artes
adulta
telesc
Pacheco
Democracia
térmica
Garden
cômodos
Cima
sk
##izumi
##encar
Arco
laços
Pequim
estratégica
capturar
hospitais
mortais
Gazeta
Ses
##alia
abrindo
Morgan
Feliz
Ambiental
reprod
gerenciamento
MI
verbo
##ócrates
açou
AA
Laranj
cum
oitava
##UL
##tuas
##goça
Arsenal
unidense
aparecimento
refrig
processador
previsão
Gabinete
percebeu
sofrendo
Fronteira
venceram
povoados
jurista
essência
arranjo
Penal
Barbara
alegria
preservar
Pilotos
Indo
##RS
quieta
##rául
##ónias
Desse
cripto
Rodovi
elevados
bombas
cell
lendas
Ár
Paiva
trabalham
Prec
devast
comandada
garantindo
Week
Saragoça
esculturas
Ayr
Zeus
pux
##ogue
##inista
falada
minuto
juntas
Júlia
Pequeno
decadência
Ópera
##anes
proto
Century
Atlanta
new
Vencedores
expulsão
parlamentares
Ecol
Leb
Mét
piso
##ilheira
burgues
propagandas
Bed
Nice
Vid
alusão
##rosão
Comendador
##jã
ing
controvers
normais
Ci
Ign
##uka
##aduras
ideologia
quadra
Hook
investigações
Process
mestrado
Mens
Piqu
##ilus
escura
##roph
engenheiros
Bonif
Bobby
Bada
MC
##EM
##acta
##ifol
guitarras
ajudando
sugerem
gastos
Encontra
Hi
Nobre
riscos
##olítico
Graham
institucional
gravidez
sócios
identificado
Ponto
Eucal
distribuído
Page
##unde
##ulário
##inge
assembleia
Project
escritórios
Regatas
Rota
denominados
revelação
abandono
prevista
##attan
pescadores
downlo
Hélio
Patro
##wagen
pronto
##eriram
confed
orientais
bruto
Shopping
vasos
Nin
##reen
Guedes
Mois
retornando
macho
estrangeira
obtidos
válido
Fland
cozinha
veja
borracha
agremiação
imit
compacto
especialista
imóvel
inaugurou
afastado
##óxido
Kiss
Tiet
Ved
provar
Flo
previamente
Rchb
##iers
##TS
##enburg
Salom
estimado
pergunta
Exped
antecessor
##etz
argentina
salvo
chamando
influenciou
fugiu
saindo
Racing
Gala
Wii
desvio
Emma
##endia
leão
permanentes
tomado
Stud
Bug
ós
##ceitos
Austin
resgate
Márcio
##erância
##ísia
unir
administrado
neutral
traseira
clero
difusão
insat
Grupos
anunciada
Ruy
Legislativo
garra
mú
tu
##meral
##esias
##itá
##onal
##izz
##cote
engra
multi
Evil
Honor
Jaguar
html
sério
##anca
pesados
Montanhas
Pirac
Rangers
Seminário
encam
pedindo
muscular
##âmetros
Financ
Mirim
Peck
Sens
##yx
##gard
grade
abra
governantes
conduta
Mann
##inder
vencedora
lembrar
Zoe
inserido
desenvolvendo
iran
##encl
##éspera
retrata
voar
Gaia
danç
Maurice
Restauração
falência
Assembl
Ocorre
sofrido
lentamente
Testemunhas
Prat
Town
lag
##MC
Campanha
Vars
Veja
Heroísmo
##idencial
##ementos
##ulk
tende
marechal
nasceram
turísticos
oponente
superar
agropecuária
Dança
Wei
##rói
sentidos
Review
empur
explorador
Fama
##ible
engan
Maç
Indicado
Sandra
Croácia
consecutivas
tráfico
Vídeo
##ituiu
gravit
definitivo
proibição
Sieg
expandir
Ângelo
##ensas
Deep
agrav
Areia
abrigar
Songs
Critics
Laboratório
matric
pesada
##óticas
arrecada
fertilidade
Cis
Kas
UC
sang
protesto
##otor
Mota
ferido
Phys
firme
ciclista
diretora
republicanos
Sz
##ount
governou
ficado
acreditar
ecossist
censos
Cun
##fre
##iny
subesp
suporta
catolicismo
Islândia
alignright
permanência
bebida
subsidi
peculiar
Hudson
Meir
##vana
##kers
Adolf
Box
armado
Evangelho
GRIN
Yan
tia
vasto
##onista
enormes
##foro
qualidades
dissolução
Veloso
Tag
##acho
grad
graça
verso
Luigi
reconhecidos
assassino
Planeta
cumprimento
foguete
Lemos
len
pom
##éct
pale
coletiva
inovação
Bic
gato
linf
over
##dle
inteira
chaves
Stev
Turner
advento
planícies
elaborado
Leopoldina
Tietê
UD
mentais
##ries
perfe
perfeito
##úcha
##ntain
Território
##SE
##orra
##ideae
##enger
##quez
alarg
aplicar
Incl
informática
mortalidade
Manhattan
fus
gel
##IV
organizados
coletivo
buscando
creditado
##árquico
##inam
entregou
ofic
##átil
participado
##asca
##alizações
consorte
falando
Verd
executada
económico
transt
aclamado
raras
Nak
poetas
Processo
fecund
comiss
##ager
entregar
destinados
##uroc
divórcio
Exper
referentes
revog
trabalhado
Saône
competência
vigente
relevância
consecutivos
domésticos
subtrop
##âncio
estuda
desap
##rimir
segura
encant
empresários
Botelho
Dutra
Boc
Alo
enriqu
medição
Adela
definiu
benefício
##oró
alco
##herine
existiu
sombra
interpretações
##lyn
separar
Cuia
Arcebispo
Trabalhista
Taiwan
proeminente
sam
##ah
##metro
diariamente
Edições
##ódulos
incluídos
toque
competir
romanc
Argélia
Resende
limpeza
Deste
Want
hit
##icatos
Anto
utilidade
Intel
dúvidas
regressou
desempenhou
Bastos
mato
vic
Ard
conjug
acadêmicos
Arizona
Hits
TC
Estima
##ícl
substant
Monarcas
Italiano
##ívidas
##pro
##emar
Terry
acontecimento
favoráveis
imediata
##áceos
telenovelas
##áutico
nesses
esquel
Hills
tranqu
Tosc
##rane
##ancy
math
Collor
corporal
neur
profundas
reflete
au
santa
ficaria
meninas
oitavas
fibra
Bird
Bord
LA
Mut
Nada
cland
##PI
##utiva
Estab
##urora
lançando
##áscoa
##estação
pedidos
Heat
Finanças
típicas
Pontifícia
Varsóvia
Itu
##kk
##quias
##reau
Camilo
realizam
Martim
California
Voz
##enciatura
Moss
Mala
##isch
Alencar
distanc
empates
dissemin
egípcia
Ernst
Fla
Ré
##BI
##ateral
##orest
parto
##cept
Compet
Phill
Obra
celulares
Pearl
Meneses
detém
Friend
Lotus
Saxônia
Square
Dordonha
Ful
abuso
clã
##ilizado
namorado
Jonathan
Guadala
Ayrton
Cust
suave
Comédia
paisagens
Desportiva
abundante
Lituânia
UH
##ister
Arru
##terial
devoção
Neil
Imedia
Giul
Burgos
pássaros
Các
##engo
##cand
decol
##ericum
insist
Boul
Embaix
receptor
astronautas
lucros
cunhado
árbitro
Etiópia
colhe
orn
plen
inventor
leves
ocorrida
constituindo
farmacêut
escocês
amistoso
Stock
Simpl
Memórias
Ultima
Natureza
Crime
analisar
DF
Wel
##itano
march
guerreiros
percebe
distantes
aze
##GS
##ionamento
##cata
##formação
Recentemente
explod
colonizadores
bebê
Moisés
puro
##adél
transvers
estabelecidas
Nosso
estratégias
Líbano
prosperidade
Deve
ED
##ces
##bn
##atina
##haw
provoca
Head
Simões
Family
modernização
spin
Paranaense
Dub
Zam
##less
Vald
Alemã
##úrbio
divindade
Veiga
crat
esbo
jogado
referente
mantiveram
masculina
Deix
Rut
lin
pig
tinta
##idea
entram
artesanato
adeptos
Fica
Jess
Orange
tij
condução
andares
renom
Humanos
Saturn
Jefferson
tragédia
Sorocaba
escândalo
##iável
##ulsão
alfa
resum
##ônus
maus
Luer
Correio
receptores
sofreram
nariz
Sertão
Mei
Nação
Oeiras
tênis
Carp
Abadia
canta
Contempor
Diante
Telefônica
Cáceres
Bang
hisp
tiros
osso
mover
privados
avaliar
##attle
Cláudia
improvis
contribuíram
Dama
Eram
GC
homosse
flutu
envolvem
pratos
Biel
Lour
Mitch
Piedade
##equ
##izava
inespera
Ald
##chy
resolve
controlada
confirma
##idelidade
Vincent
CI
lux
parou
##érg
Theatre
instant
Cannes
##mouth
concentra
Chegou
ídolo
pist
##ompson
socialistas
Nicolas
incapaz
##emon
Anjos
atualização
barragem
denunc
oferecendo
German
Brass
acadêmica
Sergio
harmonia
##yy
##umar
polim
motoc
##trizes
logotipo
Fle
gam
##ionismo
Performa
Malásia
Danny
amostras
blues
##andombl
astrônomo
Pasc
Ran
##iliano
calib
cristãs
esquad
privilégios
urbanização
Bizant
Has
nativo
##iquia
##ivan
arru
Filadél
turb
turística
válv
travess
García
Neb
citar
##íaco
teórico
altitudes
dividiu
tuberc
heter
táx
##entina
filogen
##gráficos
conservadores
Studio
Haleak
Gato
##lock
contagem
arch
adiante
##ômetro
precoc
Varzim
levantamento
expulso
Filadélfia
##ulantes
##aise
##orne
##grafo
devia
acabam
Primeiros
Hypericum
Rora
##row
##iforme
sobreviver
bachar
##utar
conting
##book
Spor
saíram
Control
dirigente
triângulo
Menino
protótipo
doutor
Mour
Sut
grão
representava
denominar
Provincial
influenciar
Queens
performances
Ernest
hebraico
##ND
##etim
##lev
recebida
Casas
comerciante
Montreal
respectivas
##yptus
Beth
Fan
lí
##apse
ativamente
referindo
remod
UFR
Palavras
ll
##rf
Prestes
Galo
documentação
mostraram
distinguir
Mág
##ionária
Francesco
##úrgico
hardware
Cuiabá
Sas
##edro
##ogan
##ificaram
Quest
continuamente
##ácios
disciplinas
duplas
fotógrafo
Lara
##divers
##isor
recre
##minster
soft
Ilust
Modelos
Sevilha
##ippi
cônsul
Frit
jac
##bas
##ulhos
Mak
solt
Beja
Saturno
frat
mera
##ivado
##queiros
##rite
##erce
##ésimo
criticado
Bispos
##údio
##icat
##unista
inédito
genes
terminaram
academia
câmbio
canhões
Dei
petro
##ejo
achou
disfar
remoção
##ennes
avanços
Ramalho
vetor
Espanhol
arrem
##under
centenário
encontros
levados
Brab
classificar
debates
Wallace
Volkswagen
dieta
eee
hor
cover
coligação
subc
subjet
##óricas
vence
blog
acusação
Sacramento
Planet
inscrições
filósofos
operários
castelhano
##alth
seções
dublagem
dívidas
##pá
##iciano
##riação
##orama
Thompson
ameaças
medievais
Phoen
rumores
Wis
sanc
##eas
colaborou
territoriais
exigências
proibido
rebaixado
Nigéria
automaticamente
Llo
belo
##anic
##ilância
##ceito
leito
##álogos
Conselheiro
Atlas
complexas
radial
protestante
abrevi
Bonifácio
Somb
instalados
ética
##bs
##inia
##guesa
exames
Aliados
Reun
##édias
volante
##nea
Pardo
falam
vendendo
argumentos
Charlotte
Him
Lisa
Ves
wik
Amster
governar
continentes
criminal
Lorenzo
Puy
banha
póst
##yg
sueca
##hoven
Mariano
clor
juntaram
geografia
Meso
responde
brilho
Woman
##épteis
Sepultados
houv
Furtado
selvagem
Frib
##ön
##tom
##px
##aces
Espera
identifica
industrialização
Raymond
suportar
politicamente
cân
nord
##uem
##ος
##adol
##icaceae
##ópico
grandeza
apresentaram
Minnes
designer
orient
Acadêm
aeroportos
revelar
pirâm
Olimpíadas
AV
Frag
Hus
coe
converg
executados
lagoa
reflexão
painel
IG
aula
sente
vass
##pers
##erente
##aver
Josef
Academy
atacou
Atlânticos
Clevel
HT
Pós
##yne
##jornal
pontas
rapaz
superfícies
cálcio
Mall
feste
##ampa
acr
barreira
clínica
conspiração
envelhec
Foundation
açougueiro
mísseis
tou
tiver
tensões
##mandade
monito
geográficas
adaptações
transmissões
atuações
axio
emocional
oriundos
Hep
Note
Moto
aponta
expressar
Jornalismo
planejado
##orough
sagrado
expandiu
##strong
dama
##ileu
congresso
encaix
Copenha
##chek
síndrome
Dennis
belas
véspera
marít
finanças
Inglesa
Remo
Mete
viola
##mack
datado
notor
forem
##alizadas
##issas
usualmente
Moreno
Mercury
santuário
pseudônimo
Eucalyptus
Minnesota
##rant
##dua
procissão
Histórias
troféu
Micro
Metropolitano
##relétrica
Intercontinental
Lennon
Páscoa
Tir
desast
##seqü
Jose
sódio
sonhos
madrugada
Pesquisas
intervalos
nazistas
imperatriz
Sweet
##vidos
trajeto
unificação
derrotados
USDA
senado
Simone
fluvial
dominar
coleções
obrigatório
equilib
Ate
##gil
##HO
##zia
##EB
assentamento
##enau
negativas
prato
generais
##eight
Cavalcanti
Aux
Prud
oto
sequer
tração
antigamente
haveria
conven
episcop
boi
##imentação
chamam
perdida
critério
Agra
GA
##br
##anias
##eting
contrac
andamento
característico
##arnação
Estrelas
sujeitos
Patrícia
fur
Taxon
vazio
Pertence
Propri
mármore
Título
##eme
abrev
Johannes
Dantas
capitalismo
Symp
Informações
aceleração
Kos
##crição
##jug
##stal
##izo
desab
Apocal
Elenco
aquecimento
liberação
senhora
Infin
comandado
testamento
herdeiros
Bowl
Majest
Rousse
Lyn
##inava
Almirante
Atari
administrada
Mosc
expedições
bombard
patrono
proporções
Arnaldo
Mitologia
periódico
painéis
GB
arranc
representados
provocando
Coleção
BM
tantos
##ther
##crito
##olita
##rint
poluição
##thers
bateu
Resultados
escalou
Exteriores
efetivo
tanque
AI
Ava
Crise
PO
Ras
citada
##avaí
curtos
Presbiter
instalar
oferecem
Turing
Westminster
alfabetização
Evangel
Pequena
uruguaio
agricultores
CL
Sama
apris
assal
materno
criadores
sofrimento
Blum
presidenciais
Ferroviária
saga
injust
##egra
Galvão
##atory
colaboradores
cadeiras
Bleking
bicic
norueguês
##ndor
##ernal
usos
Viçosa
McK
greve
federação
Facebook
candidatou
fechamento
Denis
dano
##olem
evitando
palha
Maca
defendia
inéditas
vért
Tijuca
neb
##pi
##hões
##EF
severa
exag
correto
repris
Tradução
Constru
violino
Wald
trazia
Invas
VHS
Jen
Ov
##çaram
##idenses
##emi
margin
encomend
Amélia
##icks
sabedoria
envolver
desempenha
estatísticas
típicos
Síndrome
acomod
Flandres
##tre
##adão
##roma
traçado
apresentadas
parceiros
larg
Bolonha
##írculos
fictícios
Macedônia
Bós
Pun
ff
datam
sev
##ilão
prorro
Chan
Reed
chapa
melodia
##odinâmica
bares
mord
##ady
##egatan
##illon
desenvolvem
Edge
memor
Catalina
negociação
Temporada
confrontos
Pompeu
Alessandro
Blekingegatan
Hern
contacto
##otado
compõe
assalto
menção
finlandês
Honda
##ómica
vermelhas
preparado
controlado
Roland
Detro
##hang
##igações
##orna
##ixon
##ilizou
##ource
filhotes
frequências
Ferd
derrotando
escravo
goleada
Sinfonia
pernamb
##pass
##eba
filmado
incidência
falsa
Goy
Indre
desejos
alterada
CSS
NBC
gême
##ndi
seguidos
Sean
usaram
Aleg
começado
fluido
adaptada
prevenção
Shak
invasões
Sandy
Aurélio
Títulos
Vítor
síl
rever
escolhidos
Armstrong
entrevist
Detroit
Piano
lixo
morro
##íma
##mor
minim
Roos
Católicos
Schuma
Princíp
pesquisador
conversa
crescendo
Adelaide
Performance
Bissa
Caracter
trá
##gg
##rique
despe
acid
Laf
Armada
cadeias
Speed
reportagem
Hino
##íamos
##base
##rola
##unham
traição
informou
economicamente
Lloyd
Cano
rara
##encer
##psis
turnês
movimentação
Zurique
did
vinham
##df
antiguidade
Chat
##forto
provid
Antiguidade
##ífero
Bundes
Fase
Jorn
##odi
##joz
##ative
##celino
evangél
imperadores
Gironda
Fiat
Gamb
citados
##rax
secos
##rientes
##tah
Renda
verteb
Grace
Categ
##ograph
Wonder
gasolina
RI
##wald
Quarta
Force
soja
matemáticos
videog
válida
##gsby
brevemente
olhares
Tiro
count
##star
queix
Seattle
manuf
##orregiões
acampamento
Badajoz
Low
##elão
noiva
Naquela
reconhecidas
acreditavam
Leonard
Collection
Högsby
Aus
Kre
Mits
##wil
##etic
##ifera
interino
Infantil
acompanhou
acompanhamento
metaf
microrregião
atributos
Várzea
terap
##ientemente
##rolet
emoções
##encourt
Ess
Main
Act
tax
##rangular
incorporado
incomum
Zac
##hadas
Campbell
abandonada
cromoss
réis
##get
##HC
##BO
##icto
##edi
arca
##orada
Filóso
visco
Leip
identificados
declarações
divulgado
nominal
BS
Canc
Mapa
Nort
##rough
apóst
Anjo
usina
perímetro
colocadas
balne
transformações
varredor
pôr
tratava
chances
Episódio
Biblio
Hug
Piment
##cent
##ágio
##NC
##itm
acabaria
exclusiva
impediu
sobreviveu
Públicas
buroc
##rose
Norman
coloniais
esportivas
sindical
Estreou
suficientes
##entrional
##sburgo
##ndra
servia
Joinville
mandado
ruim
provocar
câmeras
muralha
Cleveland
Schumacher
Cás
brut
##left
##adrões
monges
organizadas
Jair
gaúcho
Confederações
Nacionais
pano
##itions
##ilda
paróquias
telefônica
Cecília
manuscritos
neta
pasto
mineira
pesadas
treino
Point
ensinar
Posto
híb
##douro
##imon
##odont
##odoro
regência
Abaixo
tentam
comercialização
japonesas
Menor
garante
multip
revolucionários
Television
Pintores
buraco
##stadt
CF
Sócrates
nout
##igen
##orar
antagon
especializados
etim
encontrando
obrigação
Lindl
##elizmente
Leipzig
Dob
Ri
migra
##iores
##atia
culpa
##ograma
Chevrolet
materna
falso
criaturas
imort
Sangue
Voy
confirmada
desemprego
Piracicaba
CV
##áus
##rific
##umas
pretas
Chang
##ónicos
legislatura
pronúncia
egípcio
Renascimento
Disponível
Grim
nit
raros
##lon
##pice
##ène
espelho
locomot
baiano
Grey
complicações
diagnost
Happ
Nei
Yang
Yosh
defesas
negou
Walker
banho
apelidado
pluvio
##résc
Jamaica
Hold
cúpula
##itis
##reia
##ulosa
Abu
registradas
Buch
iniciativas
sensibilidade
criticou
obtém
Carac
Môn
Six
rub
asf
Salto
outrora
##ylla
Julio
Link
efectu
Disco
Hoff
telecomunicações
vínc
##mática
abrigo
Pays
Américo
Org
curv
##âmina
secção
frontal
tribunais
espanholas
debaixo
infinito
Situa
hind
##tir
##hai
##uridade
Emerson
León
inicio
Micr
senadores
Enciclopédia
tabelas
avançada
Saraiva
item
sacerdotes
ricas
##ives
Marg
##erintend
estejam
especializado
Aval
rapper
briga
soube
Portalegre
cardíaca
AG
##sado
##lah
extenso
fals
mede
##retamente
Celeb
alegou
ciclos
Ultra
subordinado
pseudo
étnicos
Gris
nessas
##oud
Comarca
propõe
Shang
Trabalhou
consolidação
desafios
olímpicos
Declaração
Juscelino
Led
Trio
fina
Emílio
##evelt
interfer
pertenciam
descobriram
##aneamento
executivos
praticado
redação
iriam
Luanda
decisivo
Petersburgo
dadas
##idium
terão
prestar
papal
projetada
plantações
Última
cros
##nett
##maria
##othy
palestras
Teologia
pertenceu
director
influenciada
Cerro
##ighter
uniformes
atraso
Riacho
Nero
cita
daria
demas
##ulador
##ionam
Empre
extingu
habitação
observador
comandou
avançado
Margaret
##uvenis
##andomblé
Dragão
Tow
Wy
##istano
Antrop
nacionalista
Monst
hered
Hond
praticar
desfil
defendendo
doméstico
Principal
Diss
Horn
##elamento
farinha
hotéis
ancestrais
Gó
##eos
alug
##ibil
parâmetros
ader
cuidar
Tempos
Missões
suspense
felicidade
fabricado
concebido
expectativas
##atti
Fly
tromp
naturalista
perguntas
molécula
missionários
Berkeley
Phoenix
Fara
##icóp
Living
Indust
Quebec
Bissau
Aff
Put
duro
depo
##icanos
perna
parecido
repou
telas
Spirit
imóveis
costeira
consequente
racioc
embarcação
Babilônia
Bien
Cay
bisse
bônus
##caju
prefeitos
marítimo
colina
Maomé
##nata
envolvidas
mecânico
recuperou
Fábrica
Peckham
##inco
##teo
Inform
funeral
##verso
Machine
Year
provou
herb
lutando
When
conexões
culminou
excepcional
domicílios
Dul
Gan
Tanc
bul
##pio
Salgado
sabendo
castelos
Jersey
Romanos
Mississ
##overy
Hur
Mônica
Melhores
primord
participam
##oka
continuava
##alaia
patrim
Cem
Farm
Tyler
coral
##riev
paroquial
curvas
efetiva
Euphor
Lion
meg
size
Alvar
##ículas
subida
subfamília
produtividade
##iscipl
fechou
Deputado
Müller
##enclatura
Mina
trig
##kt
##fen
prog
desastre
formais
Acordo
Canad
Math
exibir
moça
executadas
cruzeiro
manuscrito
Sven
obtiv
Antigos
instabilidade
diferencial
barroco
tocava
vestido
##éreos
ângulos
houvesse
Bai
Oizumi
Sudo
fatal
ous
sult
tartar
##ursão
##icasse
marinhos
afund
manda
Three
##chevi
prosa
subsistência
piratas
Penn
pago
dourada
##atl
qualificação
Terror
Inferno
Itab
pneum
Estabelec
Roosevelt
Ded
círculos
lenta
##irs
Parma
atuam
começaria
Ney
faculdades
predom
Sobral
cálculos
granito
Roraima
Morg
##isi
##aru
Prêmios
Party
favorito
Arquidiocese
conduziu
Interpretada
exa
consulta
Apre
revert
flag
Senador
animada
decisiva
folclore
Saudita
espíritos
Ortodoxa
##iares
##fi
##adeu
Estrut
distinta
Take
terminado
Souto
violenta
Virtual
experimento
ressaltar
inconsc
##midt
Gut
Mestrado
doou
##essete
Chry
##ugas
instituto
Publishing
Aurora
ROM
##main
conform
Estendia
Coadjuvante
Coro
substituídos
cruzamento
eficácia
monstro
Gun
Mold
##econ
##alizão
Espí
construíram
Castilla
visões
visíveis
##wards
troux
Dilma
grávida
Gur
Sra
##LE
congre
abób
todavia
destinos
artísticas
significados
##chaft
Liceu
Cooper
Ef
##entistas
render
almo
desag
terça
cafe
Catarinense
avançar
desembarque
sólidos
bloqueio
Salomão
oscil
Manif
sector
deseja
ATP
Eag
ouvi
primitivo
Anders
Comunicações
Ralph
tabuleiro
Dit
estarem
esgo
marcantes
limitações
sucessivas
jeito
foguetes
nono
##yb
Chal
interferência
Cristal
meridional
desejava
samb
##erana
##ranças
Lex
Manual
Spencer
Gilbert
Motta
Massa
Wikip
líquidos
gramática
Dores
TO
iraqu
##enidas
##elheiros
Quil
Construção
Angelo
processadores
Provis
armados
rochos
Animada
Antoine
##diversidade
Rez
dé
##VID
##ardos
estátuas
Haroldo
Louise
fornecimento
Fundada
Basco
##ascular
correspondem
Days
eventual
Langu
discutir
wrest
##utou
apelo
seguidas
desenvolvedores
recebia
Actualmente
femininas
galego
quebrar
Greatest
Kol
Linhas
Sall
Tut
tch
##ids
assust
incon
palcos
floresc
prior
Ontário
Eus
Rome
lobo
##gers
##zel
##erturas
##icante
Clinton
##rations
Mexic
treinar
investigar
Engenheiro
levantar
Railway
Arruda
beta
##tel
##echt
Paredes
##ours
discursos
box
batismo
astronomia
cavidade
Serie
desporto
subsequentes
abolição
perfeitamente
##sis
irrig
discord
trocar
conduzir
contribuir
Gália
búl
lâmina
##iler
##tex
Arl
decorre
descul
taxon
mantêm
mundos
disponibilidade
Collins
pneus
Cerv
Clay
Gand
Hamp
Litoral
fitas
vid
##óia
anéis
insta
Entrev
Buarque
selet
exportações
alvos
partidários
bizantino
bos
colinas
frequentou
Madame
Sonho
negociar
fazendeiros
encaminh
hop
sch
##química
##estinos
regen
Intelig
etnia
Turma
##umber
reuniram
transcrição
Qualquer
Básica
polegadas
Pato
Rup
##entimento
##guer
resíduos
divulgar
conquistada
Americanos
Deleg
bilhão
boliv
ilustrações
teatrais
PTB
distribuída
vogais
Ltda
BC
FR
Wander
mista
##ioleta
obrigações
Modelo
aprendizado
Ghost
triunfo
MD
game
lunar
##fatos
##idiana
Edson
secas
FFFF
Libertação
Bureau
Holand
coroado
doutr
Engenheiros
acessível
coreano
espessura
cobrança
Chagas
destruiu
Gus
notação
indisp
avist
reality
remun
Bronze
##eso
##rial
edificação
Mussol
denominadas
originária
morais
pintores
envolvida
Roth
supervisão
Mecânica
Lamp
Pack
atitudes
cortado
modificado
negativos
Imagens
Saboia
sensível
Service
Kun
##arense
##assi
Montanha
permitiram
galeria
amplitude
Dirig
Faust
Jennifer
##iatura
acar
adjet
Boi
interações
notic
parcela
Miy
Business
cilindros
English
Matthew
Jonas
##urados
##opal
corredor
crânio
Trento
Catalogue
firma
editorial
sacrifício
tricolor
Meteor
afeta
##itiv
##uster
habitat
conviv
Olinda
##ígado
pensamentos
##otten
automática
reforço
ditador
diminuiu
pôs
marrom
conseguia
turma
ligas
##verde
Bengala
contribuindo
cruel
Jung
Khan
TI
##reção
##emis
##ists
eslav
contatos
partindo
estádios
Secund
Nicol
##ocolate
correspondentes
County
Pall
##entamentos
##ronc
##elop
carbon
##luência
navais
Ambas
convencer
Havaí
Vamp
##alus
inund
turísticas
calcular
##ácuo
fixação
afastar
sonoras
Rest
câmaras
##yon
##rost
intimamente
Trem
Africa
##edoras
declarada
Guild
sucessivamente
nin
##ić
##hei
##rene
##anês
contrast
##endou
músculo
densa
Amazon
relatou
erguida
cereais
Nil
Non
net
rej
##rimido
reclama
Unix
lealdade
pedaços
Metrô
Hér
Pete
ال
##lice
##plic
relativos
causados
operador
secular
satis
Singapura
Mussolini
Dif
NH
Sass
mitos
##ilera
##quím
##ocado
clipe
##igne
Assass
Perf
##ífera
##ábulo
neocl
ajudaram
transportar
Buck
Sri
hep
pódio
##nell
##LS
##mania
golpes
punição
##opsis
degradação
Tramp
morrido
vô
##EG
##urar
##tuário
mares
##ístas
homônima
deixam
Aviação
corpora
semelhanças
conteúdos
inserção
Sudoeste
IR
fuma
lance
túnel
ár
##wara
##util
Parna
elétron
Murray
separou
elogios
doméstica
sertane
arquitectura
Kane
##kel
##WA
malha
Robinson
Country
mistas
##avel
Arcos
Sug
##gueiras
Leis
mansão
Seguindo
Pedras
Contos
limita
semanal
equipado
protege
macro
literários
##uku
invadiu
Módulo
Von
pub
##lie
##xy
Dean
Cláss
voivodia
Rosas
Observatory
Filósofos
Euphorbia
##zaro
aonde
entorno
##iday
sobrinha
##teros
capo
Hermes
Hermann
estadunidenses
mostrava
Remix
caçadores
pátio
EN
Gla
Kath
##kian
##UP
##icz
persu
Asa
incorre
##intur
##ucho
instância
repart
Araguaia
preven
voluntários
Ota
Side
##tia
##lass
##sem
##ández
corta
Elimin
explíc
Sail
transporta
selecionado
caindo
ruptura
Círculo
Dôme
Gente
Tâm
úteis
##ful
príncipes
Here
pensa
metabol
apontam
Fuji
refugiados
brinquedos
cáp
pant
dezessete
turcos
sonoridade
Brothers
australiana
homenageado
manipulação
trilogia
Rachel
##arani
Carla
comunismo
registo
##rologia
dependentes
Engenho
Special
##hausen
Heavy
Funchal
Planejamento
Pesc
ovo
paga
##wal
##lez
atest
escasse
Compara
concelhos
empresarial
Adriana
##achi
mandar
secundários
Conservador
pleb
estranho
Ress
grit
##kia
##guard
##ênios
Colonial
##ocolos
inovações
CBF
Transporte
Mozart
manequim
Inocêncio
Bezerra
Nucle
vinhos
estal
##ologista
avis
Andes
exced
monge
massacre
restaurar
comemorar
Edwards
guarnição
McCartney
Fres
cla
erig
recip
##enciou
relativas
boxe
##redond
mistério
Sabe
Bayern
Amarelo
israelense
intermédio
##sel
reabil
##eds
##ogê
acertou
Barro
Lagu
promove
detect
vulner
sustentar
obstante
Anch
nuvens
dorsal
parana
exal
exter
caro
trist
cabos
incluídas
Madre
ermida
apontado
video
aproveitamento
Destac
ácidos
Gibson
liqu
donos
atletismo
Theory
levava
##arius
Albânia
Helen
elaborar
hipóteses
hipot
Biologia
Tess
pó
##dentes
ingred
cortar
verões
##gang
Boav
flec
obrigados
quartos
menciona
Amapá
cristais
Crio
cra
pét
##iát
futuras
gerada
##ursões
pegar
Redonda
Tang
##sada
##ront
##itismo
chumbo
Quir
mini
##eiristas
associa
Roberts
evoluiu
atacado
átomo
Considerando
Mônaco
Dy
Right
nossas
Rein
##erground
Julia
interessado
Padro
puderam
Sagrado
Susan
PDF
Leme
jaz
diferencia
curi
dirige
fronteiri
bacias
vertente
máscara
converteu
ESP
##estor
##orados
##ítulo
autoc
Camões
cerveja
divor
poderão
manchas
Centenário
destacado
Advogados
Kay
Tele
nestes
imperiais
Paes
##ostal
cinzas
confec
Spiel
exerce
exercido
exercícios
microsc
narrador
libertar
Proteção
Athlet
Chipre
Bun
##gebra
serras
ligar
aproximar
militantes
comportamentos
arena
Tibério
Inde
fígado
gross
##vor
##aris
jogada
##ancou
ambic
light
Beet
guerrilh
Circuito
pluviom
fios
##din
compressão
equipas
remover
tamanhos
Friburgo
Bes
##icão
Asp
Interac
recebidos
Valor
Stars
Londrina
Pátria
ni
##DO
##uan
##amor
##anie
arredond
##ordem
Ellio
Mascar
Fundamental
esculp
Administrativo
Shadow
CAR
Gouve
Rugby
nitro
vácuo
óx
##iários
##hail
fornecem
elétricas
digit
consistente
Kate
horm
interlig
destaques
desaparecimento
pulmon
egípcios
mangás
Schwar
reeleição
UHF
Emanuel
IM
##merc
##úgio
coragem
Estradas
##egel
##astos
Foto
estendeu
About
Críticos
diminuindo
website
atribuídos
CIA
rastre
sei
##urai
##vendo
film
mascote
Orne
solares
irão
##ylus
premiação
Localizado
compartilha
Lobos
Tokyo
Drive
Kap
frios
##alti
##imburgo
repres
atentado
Unic
##étricos
Condes
##íferas
flash
sofria
##rículo
Descrip
Hanna
cotidiano
dores
erupção
##ividades
##lema
##avy
Asi
casaram
Filhos
funk
prioridade
Econômica
preocupações
relatórios
ibne
ódio
Argent
##embrou
##ínos
##âmbio
Mascul
designados
reduzindo
protagonizou
dependem
melod
aplicativos
Esportiva
Cid
Fitz
sy
##zz
##idaceae
##abra
intenc
##ertamente
dispersão
faces
Instrução
##árma
##ansen
notoriedade
Gay
Kel
Sét
seio
suposto
Caminhos
meus
Syst
Trip
Hyd
##schler
propagação
vindas
acolh
##dc
##olin
preg
Leitão
crises
##atorze
Cosm
Rossi
Criança
Utiliz
Diction
collapse
Pimentel
Geração
##nar
estôma
##aias
inden
barb
demarc
adop
adaptar
Warri
armadura
disposto
Borba
quebrou
WWF
Eucl
Edmundo
manobra
Presbiteriana
Event
Hulk
##tag
##oder
incend
Montevid
cardíaco
Kai
díg
triang
##ejos
##inador
inev
partilh
usinas
aparecendo
conquistaram
Infra
Evans
verdadeiros
riquezas
Kubits
Years
Aar
Cresc
##los
##jano
##emáticos
##eticamente
pruss
assentos
impede
batata
Petschler
Choice
leuc
Aeronáutica
prelimin
Honduras
Fest
##nico
##íbal
##hire
comitê
eleger
Mond
realismo
vigário
Pelotas
Discovery
caminhões
Líder
Pist
caixas
##itud
##onância
##écio
casais
Produz
Canárias
Stein
Gale
surgido
prevê
lucrativos
costumava
articulação
desenhista
##érsias
regimento
Antio
##êmia
emprestado
Adel
globo
atende
Pand
Tas
ego
##är
##iaí
camar
sistemática
irlandesa
trabalhador
##cules
tubos
Principais
Hed
Zez
##íra
death
##oche
Child
Filha
editores
socio
relacionamentos
glória
##layer
mencionada
desapareceu
Kids
Odeon
Kubitschek
Kin
##nter
##quit
Palmas
resultaram
legenda
After
argum
laboratórios
fazendeiro
Gouveia
Eixo
Lon
MV
gord
##jadas
##itana
##utes
marinhas
diagrama
Filarm
Plínio
vivas
##ioces
hidrogênio
vulcão
Médico
Desportos
englob
Patos
##rospec
controla
combinado
instituída
Mogi
sustentável
Betty
##úd
##abulário
entregues
enven
##enhos
francos
Frederick
residencial
aconselh
spec
ti
eslov
perpet
Noel
nomear
duquesa
incluíram
lutadores
Passa
fortificação
equivalentes
Destino
Altern
recordes
Jal
Vac
pdf
répteis
##gara
##enciar
Parada
RecordTV
European
polonesa
dignidade
tuberculose
Lant
Pix
Word
##izantes
ofício
Carto
Ferraz
Taxonomy
##icon
quim
almas
Amy
meninos
Agríc
Warren
fotograf
Claud
Empire
GNU
##órf
voltaria
confess
diária
Adão
povoações
deterio
Turn
guerreiro
isolado
Tropical
empréstimos
Juntamente
Piquet
Hércules
Ai
Máx
Oro
camb
subl
marinheiros
cort
modificação
senão
Alexandra
##égia
Notas
##óquei
##vet
##aka
reitor
invernos
visig
quantia
Setor
folh
auxiliares
arquitecto
download
faraó
##oh
##itable
##ibanc
Aníbal
##ucky
artísticos
Orn
Expres
montado
poloneses
respiração
##rer
##mínio
##itualmente
onwards
assinada
Teodoro
saxof
remake
escassez
Wend
erosão
ferv
doentes
escolhe
Claudio
Especiais
desistiu
Encontro
##EIRA
Electric
Maravilha
Goku
Krist
vamp
##vej
enga
util
Olho
##áld
especialização
Paulinho
servida
Voleibol
##ófilo
atravessar
Continu
helicóp
Nenhum
reencont
visconde
Ciclo
hier
ninho
##zzi
inteiros
casamentos
jogabilidade
##âmbia
Bloco
investir
espalhou
espalhados
descontinu
suprema
##idimensional
Dakota
Telec
rít
abat
##erald
conclus
aquando
Heidel
Second
pagantes
motorista
Vanessa
Aguilera
oitenta
Niem
autorais
Pinheiros
Ther
cut
czar
fero
ápice
##kow
##fus
##lis
##hya
##água
proje
destinadas
Guide
telesp
referendo
##eirós
olig
Correios
excelência
Protesta
Toyota
layer
Bizantino
Dado
Dyl
citadas
##iária
##xuais
muros
Valença
violento
assinaram
Peso
angol
Brooklyn
Tiradentes
Pascal
Cíc
Gn
WC
##út
##utora
##eradamente
traduções
Stri
Anteriormente
condens
minoria
promoc
contex
Juliana
extremos
ensinou
Brigada
Hort
Sáb
eixos
##cula
doações
estip
Alonso
recomenda
##ígenas
exigiu
encerrar
Cordeiro
compatível
Cell
##orze
##olk
##adequ
##ósp
##grado
distinto
caf
setenta
Solid
eleitorais
##umble
atrai
Subst
Estudantes
Chamber
Cyr
Gy
Gott
Pilar
cora
emig
##apolis
char
infante
##álico
Canav
##encialmente
paisag
invasores
Folcl
afastamento
Pantanal
sincron
Profissional
Arac
Irene
Oba
Tin
Women
##ska
##rima
Resolução
costeiras
fortificações
Eugênio
Observatório
extremidades
Face
Tran
biblio
cc
##ié
##osso
##recht
estup
exposto
aten
Aleixo
interf
poética
falava
Lauro
Scha
Heróis
detet
susc
arraial
praticantes
largamente
telespect
cá
ic
vendo
##ser
##Car
##enga
desente
abal
##inski
comercialmente
estratégico
Birm
colecion
Nassau
Liter
PUC
ares
terapia
##borg
##AL
Estações
##ofre
repara
exemplar
embrião
sofrem
Harold
romeno
convenceu
votar
Conservação
script
apaixonado
Lenin
Lançado
discriminação
Montevidéu
envenen
His
gor
##gate
comm
##etus
entr
Arma
intervenções
ganhos
botânica
predadores
Armor
celebrado
legislativas
algoritmos
Cairo
autobiografia
Paramount
Vital
fidelidade
##ound
partilha
plana
francisc
Carlota
Schmidt
funcionam
Airbus
Dumont
engloba
Vereadores
Smack
Viz
die
##kn
##lina
##bel
##urismo
Exerc
poup
Partidos
mágico
realista
dominado
##orfismo
Mickey
FFFFCC
Anchieta
Coca
Gat
big
##ltico
aprofund
Retriev
Representantes
empreendimento
softwares
Parnaíba
##mões
##emático
##atada
porco
Probl
trocas
exibidos
freqüentemente
Laurent
Cícero
Vern
urg
##ów
##itri
##ísse
Monde
sediado
convertido
provisório
estacionamento
Euphorbiaceae
Marcus
desportivo
pressões
Futuro
chileno
oficinas
Mura
##Ma
##entral
##gust
positivos
passavam
levaria
simp
##ilhões
Género
Judas
pronuncia
rejeitou
concorrente
expulsos
diplomáticas
Goytac
Selec
Was
módulos
pin
forçando
ocult
Colet
Acab
situadas
estruturais
sugestão
Defin
Rogers
achava
Registro
adjacentes
Ces
Laz
Zep
chec
##reo
##idora
forçada
Chanc
Pedag
Saxe
Duquesa
comandar
##ophila
Mayer
cativeiro
Beg
Ipiranga
Jet
nec
reap
##ropia
nascentes
renomeado
Africana
SU
Vento
Wu
bolas
##eneu
##erantes
primos
contrab
##ureira
Mineira
surgindo
Turbo
significativos
comparada
azeite
country
Heidelberg
Hob
lan
lotes
##icum
##queles
interiores
corretamente
crônica
existindo
escolares
Thiago
Presley
YouT
dominação
glândulas
##war
deposto
##ncios
cláus
Amado
verifica
administrar
Instituições
Escreveu
prisioneiro
férteis
tesouro
Dublin
Whe
##cias
##úncias
primas
uniu
proclamação
sentia
Moniz
Benz
esperando
CDs
Allan
Bolsa
pênalti
inédita
buracos
pandemia
gravitacional
Pica
geográfico
significar
pilares
Psych
holandesa
protegida
conferências
Morris
rodoviário
iron
lema
íons
##cus
apag
##otto
distint
Energ
Screen
Resp
Western
paralelos
Yonne
cear
##mantes
estere
##chio
condutor
nacionalistas
Sebastian
Humanidade
convencionais
acrescentou
judaísmo
sindicatos
Hind
##endendo
##gart
##eran
teless
máxim
Montana
luzes
Ryu
Mamíferos
integridade
heavy
climáticas
Seixas
Ave
Tamb
cet
##gados
##jados
habitavam
Diabo
Fausto
trilhos
Philippe
##fried
nomenclatura
Pred
##ems
profeta
##ambul
Alpha
resc
minor
Cold
cinz
diários
Duques
originário
atraindo
restrito
resistente
Estatuto
sólida
Siding
abrangendo
Heaven
DI
Jund
Tac
##úbio
seda
##atri
##ovich
Program
facção
##rish
Kings
lavoura
Bairros
garg
intestino
desenhado
legalmente
Division
Quinto
Operações
comemorações
converter
Monumentos
Pavilhão
retomada
Mascarenhas
Aí
Dame
dum
fan
exata
casca
saem
barras
acabando
folk
Pontes
Jerônimo
sucedidos
fechar
silêncio
Introdução
Ptolem
Pádua
ame
jato
jantar
##hing
asce
aritm
##mani
##anhos
duma
max
marcaram
adaptados
##áceo
consciente
semiár
dinossauros
Raz
Sinc
##kai
##erativo
amino
Conquista
##ráticas
diab
caos
invert
continuando
Cata
cobrir
Solo
##ospel
derrubar
Mortal
Tesouro
circundante
##ław
Mississippi
##onom
expo
mast
Invent
##uche
atrizes
ferimentos
liderar
##iorgio
incorporação
escoamento
anexada
houver
Gavião
Bósnia
Ciro
tantas
quatorze
queijo
Apóst
depósito
arquibanc
cald
Senadores
Princeton
julgado
Abraham
Vêneto
raciocínio
EA
Pon
best
pál
##ionaram
carp
Baiano
enfrenta
suspeita
patrocínio
Standard
Kant
##DI
antip
Osvaldo
estatais
Madison
quadras
lembrado
delegação
esgoto
frá
pia
##mad
##hados
##UT
Porsche
teóricos
##plica
Cow
Interv
montes
multin
Tales
Michelle
planejada
vilões
Silvestre
arrast
Ajuda
venezuel
flauta
YouTube
Tip
##ding
##uá
atribuição
Osório
difere
valeu
Myster
backing
silv
Criado
Pseud
Sílvio
Cura
Viação
##ban
##atários
envio
textura
disputados
promovendo
resistir
rígido
desvant
FL
Pisc
RO
Tint
mina
##mart
suposta
##omba
enter
##eger
Chiqu
Clima
mail
liberado
Voltou
Podemos
absur
banana
STF
infloresc
PDT
salvação
hidrául
Hunter
Líbia
Fantástico
Dylan
Nancy
bei
ímp
##tera
##ping
##ropo
##lain
Teen
Angélica
Morumbi
Germain
Felix
dependências
telessérie
Siqueira
haste
##hima
##icaram
##rug
eléct
evac
##demar
estudantil
Milagres
Auguste
ingressar
borda
##doba
abdic
##igny
##grey
divino
Conte
retra
##kee
Forever
tropa
dominada
redig
Fighter
bre
órf
idosos
subcon
metral
Duff
##alhes
Orientais
verdadeiras
delegado
budismo
SN
you
emissões
reside
especializadas
superficial
secundárias
adicionar
fiscais
Circle
resultantes
proeminentes
comboios
burguesia
Toscana
Ada
Gou
Luna
Pamp
Slam
##tec
##del
##uza
##enge
Maril
governado
##ppen
aproveitando
comunicar
Década
discípulos
##inturão
DOS
Muta
Rov
og
ân
aposta
##tuo
retoma
criatura
Edimburgo
Andr
alimentam
desconf
ressusc
intercep
obstáculos
suficientemente
desigualdade
Renov
terços
##inand
honorário
Karen
condenados
Sidney
televisiva
precursor
Index
Court
##FS
terrível
##irac
revoltas
transferir
Otávio
sucessores
Habsburgo
Rudolf
cachoeiras
DER
Festas
Garo
Sanc
bet
lê
luso
fogos
##unga
desespera
##artida
##écie
##ianças
ampliar
Jules
aristocracia
Antioquia
Niemeyer
cif
tenho
##oním
##omendou
primárias
marinho
Anf
Elvas
instaladas
organiza
vocals
Saldanha
júri
India
dual
gav
hmin
shi
vara
##abas
comprado
Camisa
##iadora
Computer
Steel
Heitor
##ileia
cruzados
agradável
monstros
desbrav
wikitable
Ptolemeu
MT
tirou
##áf
##ález
clássicas
Bonfim
recupera
pecado
ciclismo
membran
Ring
##mont
##oire
##tat
desg
filiado
Marino
home
manga
Luke
##owa
##ephal
italianas
gradual
orgulho
exceções
endêm
vanguarda
Lázaro
repouso
Rig
Vian
##ralia
##erife
nauf
##ency
tricam
estudado
Recursos
delta
instalaram
funcionou
start
Horas
interessados
celebrar
COVID
Farias
Vegeta
González
Mitchell
Salles
Ner
cerrado
fatura
##crit
##oril
estamos
##riota
intenções
##caia
capelas
##ucas
vivido
Baltim
melan
Cut
Dro
Lay
Lett
tup
##adino
##acete
inadequ
forçou
parente
descrições
guarani
criminosos
exigia
trabalhavam
proibida
acumulado
Twitter
antepass
ginástica
Benth
Entrevista
Surg
TEL
seqü
##qual
##iales
Sull
##uíta
cantos
##insky
aumentado
Malp
Bangu
desfiles
Episc
Other
##rocod
arranha
Médicos
consagrado
##fas
##LC
prémios
muro
confluência
Rodrí
##phia
##amoto
topônimo
africanas
rebelde
estômago
mape
dog
##ether
intim
teórica
dies
viaja
##gonal
Palmeira
espirituais
Camarões
asiático
Estrangeiros
Guns
Py
Pérsia
litor
lendário
dourado
##americ
adult
Computação
cobertas
Concerto
Ellen
curiosidade
Cau
Ide
Sle
Spa
Templ
##non
##óto
##izes
assentamentos
##astro
Brava
montar
certificação
Cavalaria
Keith
Sudão
Rodríguez
Dyn
Nó
Nara
Nele
Náutico
Utah
Vert
Ép
##ridades
##geu
##úna
autent
averm
##álica
reduziu
monopólio
Gom
Águia
##pho
##CAR
##ities
Clement
validade
plantio
croata
enzimas
Nixon
Owen
dragão
##oney
##erativas
##aps
seguia
localizam
Córdoba
pioneira
Veículos
simboliza
brilhantes
temporária
##ython
estímulo
Avaí
Baltimore
Gle
Tog
Torc
Zan
ruído
##tria
##enários
diretos
habitado
metrópole
Contas
observada
afirmava
obrigatória
dedicados
sustentação
jurídicas
prefixo
neutro
filosófica
Combate
Masters
esquadra
Mourão
Fís
Iago
##hab
##sons
##gae
começava
gravaram
nacionalismo
terceiros
book
##arágua
digest
ferroviárias
cercada
evangel
nutrientes
Távora
romancista
##mund
##Down
##èvre
##eceria
prema
avenidas
sistemat
embar
Nicarágua
educacionais
chanceler
Windsor
Guadalajara
Contemporânea
Laguna
Agrícola
Landes
TR
Wang
##pm
##elmo
##tain
##utsu
##egem
amig
Stories
taça
Schl
Mountain
Murphy
encerrando
combustão
Esportivo
Árvore
Amo
Bibliot
Dela
Dante
Fay
Ranking
Alab
Esquer
concorrer
##inea
edificações
Verdade
situados
controles
Irmandade
ajudá
Bridge
Prix
múltip
Integração
posicionamento
Bombeiros
discípulo
Case
##ionale
modificada
Maine
versa
Gabriela
Bachar
pedaço
Powell
Amarante
manto
##ridos
##uit
##QL
Campeonatos
levemente
Place
##ateia
integrados
originários
Develop
tabaco
cancelado
##enzie
Médici
biológica
entusiasmo
bárb
inconsciente
Euclides
Sovi
Winn
##iços
##osão
##alá
##ipto
##assos
Alum
##icose
##pler
Châ
Inn
##ésima
Aberto
doces
Condessa
baleia
Model
Curios
invadir
apaixona
fabricados
harmon
##asaki
Tancredo
Crav
Gü
Ich
Pimenta
##quinha
##urp
Chuck
coron
##agement
alcunha
Library
Pacific
Origem
isolada
Seven
cedeu
protegido
##rofes
selvagens
Virginia
Werner
##réscimo
##ances
capitalista
##ficientes
Freud
domingos
larvas
Gustav
judiciais
retratos
lenticular
##alupe
Doll
##kar
##guera
elogia
Depressão
##anteão
Correspo
##rever
ocupam
patas
declarar
Fauna
vigilância
democratas
Database
Griff
plebisc
Dai
Ensa
Oak
lum
##anne
##nche
##ivid
##etar
acopl
prático
Common
patentes
malign
enfrentaram
viajantes
anexado
Bienal
Giant
avi
##vira
Paolo
tornava
Olga
necessita
Teruel
identificada
capturados
Fiction
Índico
levantou
Nevada
gratuito
##çonaria
Kentucky
juvenis
##itante
##ación
##ages
incrível
Chern
instru
Adrian
##ertando
ataca
ocuparam
frequentar
Japonesa
registra
ficavam
exibe
psiquia
eliminatórias
sobreviveram
canhão
infecções
Wi
##inosa
Chase
See
Thé
Look
celeste
concentrar
guerrilha
notavelmente
Stanford
Ipanema
furacão
exaust
trouxeram
bu
comentário
##uni
decep
pesos
democrático
católicas
espalhadas
passeio
mergulho
Giorgio
Jara
sát
##cell
tratada
Children
descan
##ichos
ocupava
generalizada
##adáver
Mercos
herdou
Crítica
buscou
nervo
possibilitando
Fantasma
argumentou
Frut
Vancou
##nab
##gne
##iava
emoção
##eirense
conseqü
Alba
##plan
incerte
Neo
Pacto
depender
PCP
Snow
arrecadou
Bit
bag
##kir
##ов
##ancos
Eleito
Teor
causadas
integrando
Diamond
restrita
revolucionária
ribeira
Vingadores
Graduação
Microrregião
Sailor
pétalas
Ear
Fus
Hok
Lup
##úblicas
##talo
Olhos
Catherine
Cearense
descrevendo
entendido
fértil
beis
##hat
##wall
##iosamente
Esportes
##ênico
catorze
Peres
Saf
tecnológico
viet
arquitetos
Latin
bacter
manifesto
cercado
##ioterapia
olímpica
pólo
beat
estará
estariam
escand
contratada
chegava
##urem
saídas
Canais
oceanos
Bernardino
hemisfério
Petrob
Esquadrão
Randy
nestas
##raz
danças
##acio
##erium
Ary
monoc
monarcas
Mats
conjunta
disputadas
vermelhos
Talvez
##igrante
herdeira
regressar
Cineastas
Assembléia
SmackDown
Ninguém
hex
##alina
##essos
encabe
crônicas
confecção
##ectic
##ović
automático
Drama
mortal
Wolfgang
Ferdinand
Crac
Juda
Ward
iso
ritmos
desvi
mono
raiva
Artista
aproximada
penúlt
rápidos
rápidas
melhora
patriarca
Floyd
Fritz
sultão
Vancouver
Cuc
Coch
Gira
cúb
##rimas
outorg
##avações
passados
live
utilizava
emblema
mág
refúgio
Artístico
Burton
coroação
emitido
reportagens
impressionante
criminoso
consoante
archive
Nut
##iab
recu
Chem
Consequ
colisão
cometa
causam
implementar
potenciais
Etn
cerimônias
visitante
Márcia
Quadros
##nthus
beisebol
mala
orações
##tá
##ering
all
indicou
##colm
Assuntos
importação
critica
Small
Produto
Klein
Mercosul
##NO
asp
decom
Eli
Core
##lands
permanentemente
Cristianismo
reflexo
exigindo
transferidos
encontramos
paralela
engenho
ótima
ícone
Jura
vela
##hem
##ères
reac
imper
Texto
##eixes
obrigou
Farol
Formou
Cleóp
MGM
fisicamente
roubar
Atlantic
travessia
Beto
Cour
empos
##urista
ocidente
##eps
dividindo
olímpico
Mikhail
berço
##pelin
civilizações
Tomb
Witt
##gins
##erável
##isticamente
foge
##alizador
colónias
Action
Laje
Malcolm
Berry
Tomar
auxilia
arqueológico
inserida
indefin
garganta
Cleópatra
Caza
Roch
##TM
param
prestes
autênt
##óloga
Madhya
Herman
valorização
dividem
empatou
Jacinto
progressivamente
eclesiástica
anticor
precoce
Paysandu
Pach
mouros
##Ligações
##PR
dei
cog
##inoc
Esmeral
cardeais
concursos
consideravam
cantada
sequest
dispostos
Equipe
Guadalupe
submetido
sufrágio
migrat
Ginásio
ducado
Sera
Vira
Yo
mg
pilha
rid
##ffe
##xás
##inson
##ularia
forçados
##ibular
claras
Colin
Calc
fraqu
divulgou
UFC
abrangente
pátria
Lado
Lérida
MDB
NY
Tril
picos
##iaria
##toma
marcos
##ificadores
barreiras
apoiada
Chama
Double
Holmes
fenóm
adquire
Tanz
missionário
puramente
divindades
feriado
Away
Cus
##tea
traje
Aldeias
destro
Anti
##ucci
##glom
Castilho
Raj
Marcha
Haiti
Christina
reforçar
Cartas
Tarde
Fischer
vogal
colombiano
Frio
Miz
##mers
clado
cortada
##say
interrupção
mandíb
testar
derivadas
impedindo
alimentares
longitud
mobilidade
Dow
Yale
cito
imin
##LI
##alā
seguros
Sty
condessa
Sociologia
##iológica
acabado
Bruto
revelando
introduzir
Localizada
eliminada
erguido
Cabeça
têxtil
detectar
Wikipédia
Inteligência
Cintura
Moc
##tons
##reis
##ectos
##tend
incont
Parlam
visitado
imensa
rodadas
elevou
esconder
fictícia
##ânscrito
Tamil
controvérsias
mathb
Deixou
prorrogação
Sullivan
Aman
Bj
beg
##wing
##raca
##inen
sedes
##atoriamente
##abo
##other
choc
suprimentos
Color
genérico
Poço
Irv
masculinos
Basil
##anthaceae
testemunho
artificiais
Abdul
##roupilha
Ultimate
##roncamento
Manhã
lida
##rö
##íos
##uja
##itutos
Chen
Moham
Calábria
classifica
tocada
Aracaju
proporciona
robô
Sapuca
Majestade
Zeppelin
Fisc
hegem
lend
pensão
##iques
##lich
##nday
Oss
Chall
Universitária
trabalharam
universitários
tradutor
exigência
tecladista
distingue
Jovens
Haleakalā
Bundesliga
Amea
Rhy
Vend
mérito
##fante
Brasileirão
errado
auditório
exigir
##ispado
condenação
tib
##eió
##aterais
##izante
##iru
persas
grava
##ritamente
pressu
demográfico
trazido
multim
residenciais
angular
Chapada
True
Hara
Hugh
aman
puri
##veu
##áteis
##roe
quinh
##tativa
##qua
##erato
compras
Alasca
maturidade
report
respet
mantidos
Matilde
demonstrado
Bosco
acompanhando
imaginação
Zamb
##light
##hel
##adinho
reestrut
camis
Cameron
##ólito
fluminense
vizinh
aproveitar
regulamento
terroristas
Criada
Girona
pirâmide
Ming
##gie
nap
amad
convenções
opôs
ligam
Maceió
relatado
Au
Pter
RAM
##adouro
##inárias
##reza
##peia
orto
##órdios
Impl
Atlética
violação
Gerald
Weber
prometeu
Arroio
apropriado
renascimento
Xangai
Categoria
rejeição
Cál
Samb
Zimb
xpx
##ason
##entável
Emira
##ubá
Chá
habitual
instituiu
##úmbia
falhou
Distrital
tocado
Falcon
muçulmana
surpreendente
recorrente
arrecadação
Dora
FS
Gang
PV
lamb
##Sc
##alc
Eslov
dueto
radar
querem
perdidos
Triun
PRO
consoles
diferenciação
solicitou
rendição
marxista
Bahá
MAR
Og
Rip
ior
lâmp
##kus
grafia
idéias
triste
Alcoba
avaliações
correndo
verdadeiramente
alegre
gregas
chuvoso
liberalismo
cilínd
Electron
Identification
Tunísia
Dí
gerador
##long
##ermo
##caide
provinc
infilt
especificação
##phis
##garos
Harvey
Fundado
Amorim
constituiu
traduzida
firm
arbustos
Ltd
nuvem
anfíbios
Tâmil
Dres
Fras
##héus
##arum
##elados
dance
##émico
##âmia
combinações
tentava
Deuses
##copia
defendem
divergências
caverna
cronista
admitiu
jej
mixagem
peruano
prevenir
Vara
##aine
estender
descida
ocupados
reunidos
islâmica
php
cônsules
drenagem
Hod
Koch
láb
##tidão
alde
##otar
incidentes
passada
encara
Antão
Douto
restrição
Retorn
elaborada
urânio
perspectivas
etnias
óptica
Historicamente
Zamora
Lourdes
##útbol
Komb
Nela
águia
##ej
##adares
Estudo
##issos
agro
Clássico
Barragem
##ágrimas
reunindo
Voo
superado
Guerreiro
Morrison
Pastor
Árabe
Beethoven
Dictionary
Aru
Dial
Gim
Lum
pega
##als
##itaria
##etime
##usas
Embra
##ornis
unicamente
revit
serviram
Instal
Maciel
tecnológica
Fisiologia
Illustrations
Trilha
aéreos
hort
##TU
presum
##ráticos
poeira
##onata
veem
Garib
Intermedi
Pinhal
ótimo
aterr
Break
bip
##entavam
conforto
##ultado
carru
exteriores
Luiza
marcial
Jak
Legal
Autores
democrática
carregar
Sucesso
reivindicações
Vênus
Aero
Sod
Velas
frias
##ró
exposta
neglig
##angular
Verlag
Minor
viveram
calção
funcionava
Pontos
##érez
Judiciário
suíça
confundir
filosófico
Tigre
alterou
fecundidade
vietnam
Berna
Meyer
Vidal
roll
embl
##etário
acident
polic
Eletro
Museus
investidores
##escens
conquistados
tratamentos
aprecia
arquitetônico
CPI
péss
restaurado
invadiram
transe
Renata
Some
tiras
##anesa
Seja
Queirós
Mafra
Adri
turbul
Shaw
Boris
ordena
informal
emitiu
nervos
Italia
abundantes
relax
climática
Fútbol
Gráf
Kak
SG
Tia
Tell
##MI
##ncos
origina
minério
Capítulo
ligava
Caj
Dout
quilos
Floriano
Oceania
indicadores
Albums
Full
bob
##eça
##iensis
##orico
##emo
carreiras
##íngia
Fotografia
Eleições
##íficos
Patric
alcança
Harm
observados
ajudam
Papas
ausente
Africano
supremo
enzima
gordura
Sula
lumin
##neu
##LP
##BB
coalizão
##amas
tratando
recicl
Osaka
##ínica
##feres
extensões
Valley
Caet
tromb
Ober
acontecem
Retrato
melód
computacional
tijolos
Bamb
Had
Lub
Python
##até
##euta
Taub
ferrovias
paralelas
assassinatos
guardas
proporcionar
aminoác
Dag
Hir
Linh
Tranc
mut
##iens
Deportivo
interd
habitam
solen
manch
participante
visibilidade
denúncias
Monarquia
artefatos
Marcello
Confl
Lagoas
descrevem
testemunhas
bovinos
tombado
Politécnica
telescópio
Obama
diesel
Fog
Hiros
##ax
##ffer
##hod
Apolo
internado
batizada
Phyll
surreal
Bald
Imacul
disseram
Ursula
satisfação
Hidrelétrica
concessões
McDon
subsidiária
Prudente
##ridas
##cões
##ectura
##down
##enciada
Guaran
artéria
##úmulos
justific
Interesse
juramento
Spielberg
Descriptions
Frat
Sad
Zim
funda
gesto
semente
##gueiros
perdo
##regos
simplicidade
Astron
Resistência
deveres
Comendadores
recompensa
Laranjeiras
gêmeos
Alegria
Ris
Vidas
tram
##pura
##áz
##icalmente
##ated
alar
perme
Reform
inverte
Spin
##CAP
legislativa
Sierra
suspenso
excelentes
Animes
interrompida
argila
Religião
Caldeira
serpente
Friends
Peg
híd
pio
##omor
##uzz
Next
ocupadas
oferecidos
conceitu
Vencedor
Puerto
austríaca
petrol
cós
ont
táticas
coco
##stra
##atha
##dot
##jaí
##oki
expresso
predecess
pacto
Armênia
ultramar
bolchevi
fraude
profundos
votou
Experi
BI
##uoso
filtro
assento
##ertado
agenda
##ucana
homic
cabine
legítimo
##tires
praticada
protocolos
mínimos
Equip
MPB
Tradicionalmente
Juríd
cilindro
##rinação
##ián
##gom
##ionagem
duelo
Soccer
##afir
Romero
aposentou
amantes
persist
sérvio
Weekly
Brassicaceae
BO
Forest
oposta
rato
##cura
##TT
##alde
dobro
atrito
estendendo
Cruzada
erva
orientada
atacaram
codificação
moldes
Artilharia
argumenta
EF
HMS
Liu
##quei
##acy
Guido
Mao
Josh
setentrional
Palat
Doze
viriam
Diamant
Bonito
##TAN
ordenação
faça
laser
anexação
periféricas
Stefan
Jundiaí
Caz
cunho
##pace
##hart
reesc
##acing
impor
media
Thunder
pensou
Famílias
Euf
vigência
lagoas
Relatório
Ocean
retratado
jesuíta
telejornal
Diversos
Whitney
Operário
indispens
Alcobaça
LC
testa
##quito
monarqu
atingiram
remet
alcançaram
Evan
##íssil
avançou
pegou
resgatar
étnica
CG
Gana
Nir
Vass
cadáver
##jab
##hama
##town
pretos
repel
inglesas
operadores
vitamina
Sonora
Formosa
##vorada
cavernas
ucraniano
white
terapêut
Cena
##ming
##LO
quedas
##itoras
reclam
idades
habitações
simetria
classificando
superioridade
pagos
armad
##íquias
Maxwell
Revolution
Côtes
retomou
afiliada
Shakira
obtiveram
Ivo
gov
##pan
##hã
Estratég
acaso
Andreas
Revelação
Meia
moto
Metall
comandantes
psicológico
informado
##kinson
pavilhão
germânica
tolerância
Anglo
geneal
grosso
despedida
Mathemat
Cert
Gui
Yuk
##inópolis
##imado
##ifícios
##duras
voleibol
diárias
Thal
Comput
Concert
Octo
temperado
rotina
detecção
mortas
comunicado
Considerado
Nazista
comentarista
Niel
tanta
##ough
habita
unidos
situam
aumentaram
adotaram
lutaram
acreditando
tripulantes
republicana
Nature
admitido
étnico
Estreito
Reconhec
Baixada
contrapartida
paranaense
Interactive
HO
hes
dedo
##ovina
##monte
primórdios
Outeiro
Banks
Britney
sugerido
ultrapassar
catalão
incêndios
intermediário
Köppen
##ledge
insuficiência
Amsterd
Lane
Verg
cume
feixe
sargento
##heiros
##rei
##iber
indiana
Storm
duzentos
Eletr
editada
facções
Agn
Livraria
amoroso
logística
atribuições
atribuídas
mul
##ébio
##aton
Qualidade
##consin
representadas
Geográfica
basquetebol
Madureira
chamavam
Airways
##roll
defensiva
atribuiu
responsabilidades
controversa
Retrieval
Bravo
Ster
Tio
##kl
##rill
##ilson
abertamente
##udad
Brasiliense
troço
##iquiát
declarando
Basílio
##reaming
repetir
fantasma
Blake
encenação
complementares
Juvenil
hits
##pina
alav
regimentos
diretas
power
mediterr
diálogos
Thom
oliv
circuns
procuram
Senegal
Fajã
memorial
incorpor
açor
advogados
dramático
cachorro
##érgamo
##ecticut
Desa
Kur
gay
##iconc
##análise
notadamente
respectivo
topónimo
secretária
individualmente
aproveitou
goz
Cartoon
semiárido
Ic
##put
##gru
concep
devida
Spider
Valores
Tracy
enfim
Kingdom
chinesas
Visual
veterano
armazenar
Muniz
Kenneth
diplomática
Connecticut
energias
lobos
Aub
Hitch
Sart
edu
pis
##anum
aliada
Estava
regulação
marg
conserva
relatividade
Anel
distúrbios
realizador
Short
genético
assumido
separadamente
morros
introduzidas
Craig
biológico
revestimento
Wellington
calibre
Curi
Nec
bab
tamp
##ifas
conturb
sobe
Bata
oponentes
Pois
##icionista
Serp
secretamente
Crow
robust
rendimentos
acústica
Studies
reabilitação
Ced
Danc
GM
Pasto
Zap
brav
##VI
##enove
##ulante
grama
##íplice
##tivismo
Reyn
Barreiro
noturno
Delgado
Philips
vingar
monetária
sangr
Norton
Aço
cimento
##bath
##ENA
##igão
Emmanuel
Colúmbia
Manuela
Centre
gravemente
##ivaldo
funer
paterno
##spacing
acontecido
Daw
cacau
periódicos
esferas
piores
dormir
cellspacing
Hepburn
##iconcurso
Manc
RIA
Zara
aur
súb
vascular
##rinc
##osição
nagar
aliv
##iph
colónia
##iguar
criam
alignleft
barbe
treinos
cabec
##itsu
apontou
Wikiconcurso
Virgílio
renomeada
Productions
Wisconsin
Pérez
Sadd
##icola
estritamente
##ezer
pará
assina
Anita
direções
minús
##ryth
oriundo
Divina
florestal
##rupções
Allier
conduzido
terremoto
Ultramar
confundido
Abrantes
Paralelamente
manufatura
##HAN
##úcio
##rofe
##anza
##ileno
Cox
Cohen
Palermo
Geoff
conclui
lavagem
robôs
admiração
Wrestle
Orleães
transversal
Mendo
Mazz
Vilh
angust
Alien
##ércia
encostas
moderado
##ropriação
Goa
violentos
precisou
retirados
equivale
indicados
reinou
Lobato
Dionísio
Ace
ER
Juno
RC
Wan
trim
##icho
dose
recorre
##enca
##chia
concorreu
usual
Sche
derrotaram
relaciona
estimular
celebrada
ouviu
aguda
Ocupou
subtropical
Uz
##UN
qui
##onica
envol
Nicholas
Montem
competências
Troia
##itzer
Massacre
aplicadas
Jordânia
Imediata
Jessica
Fast
Pero
Vog
Vinh
buc
fino
##çaria
##erat
##homa
##oteca
##ungen
protecção
Ramón
Açúcar
Retiro
CEO
ginásio
extraordinária
Bryan
pároco
homossexual
cápsula
descanso
Biz
NET
Omar
Saga
ginas
nêut
##qued
propos
##edom
aclamação
Allia
antena
Paços
unan
##ômio
medula
move
Harper
transmitidos
Budap
##erdades
cancelada
contingente
telespectadores
Cana
Cerrado
MM
Seca
lentes
##eves
Exc
expans
palácios
Beren
enviadas
escalão
galáxias
psicod
decora
multiplicação
córrego
Bib
Tha
Yoko
cup
##each
##jé
deno
##ulé
##lamat
##erty
Reagan
pausa
inverso
##iesel
Historia
Consol
Monf
Melbourne
beber
Usando
Engine
ingressos
soprano
Briz
Pê
ná
rubro
##cock
##elis
##obia
##inata
Una
incumb
monot
Capo
surf
observando
lineares
algéb
Arraial
Plaza
substancial
metodologia
Adventures
Expresso
Garibaldi
Bü
Oi
##icot
##obar
acorde
mesorregião
##teria
Elementos
utilizavam
##ffen
assistiu
entende
Huesca
Classic
Guerrero
anunciaram
exilado
razoável
Fey
Luso
##nis
##ríveis
esqui
##ensos
Comum
indícios
age
Proib
diferentemente
propic
##regon
autorizado
Nasce
executiva
inaugural
##únem
instituído
imaginário
##ransm
cratera
Hughes
FO
Morre
Muc
lis
tática
##CO
##anova
estamp
impactos
localmente
Anjou
encarn
fungos
Raquel
Glas
atingida
Brid
Basto
colaborador
enfrentando
educado
soviéticas
Integral
Office
Último
Anselmo
manobras
horários
ful
##dd
##ué
condo
##enti
actor
##ónimos
Cory
Enfer
substrato
marcação
humanista
##íbia
candidata
procurador
Mount
afastou
Garay
crucial
Blumenau
Antropologia
Language
##onímia
Nen
##stream
##enor
##etá
Refer
estadia
funcionais
funcionando
fornecendo
maciço
correção
economias
Germânia
anúncios
inquérito
feudal
Liz
Suns
sais
##vos
##eti
abelhas
pren
Ars
diretrizes
contratados
retomar
sociologia
Enrique
inspirados
NASCAR
vetorial
Participação
preferiu
Conservatório
reconstruída
Daniela
Eras
Mural
Wim
bula
##kon
##had
coleg
##icil
contração
##allo
dióxido
denuncia
Material
Escrita
acontecendo
biodiversidade
celebridades
económicas
votado
chapéu
morfologia
episcopal
Nuclear
Dá
Padrão
ovel
tó
##éra
##anque
porcent
##reste
alist
alugu
Chac
Soci
criatividade
Salt
obsol
Concl
vocabulário
anunciar
Diniz
respectiva
Return
repetição
libertado
dedicação
solidariedade
Works
Caçadores
Linhares
Mão
link
selos
##icles
##inções
aliadas
despo
##agne
##eber
Espos
agressão
##cea
Maiden
Actors
feiti
Treze
necessitam
aumentam
derrotada
universitária
Bale
Amazônica
##órmulas
listras
filmagem
convocou
adquiridos
Berger
Future
exclusão
Bielorr
Hesse
Mez
ray
##play
##arques
inger
comporta
##manas
distrital
Train
morrendo
soul
adicionados
Roteiro
carregado
Pertenc
Guardian
Esquerda
EX
Gog
Lorde
ME
Visão
dali
fárma
my
##oo
##ivar
escavações
enl
incerta
fundamentos
Raf
reconquist
registrar
Autónoma
Feel
restaurada
delegados
fóssil
namorar
##benkian
percentual
Five
rpm
##ieri
##hra
##hus
##atuba
apresentavam
Abertura
formulação
especialidade
ISS
glor
acessos
Marketing
Bertrand
renunciar
Renascença
Árabes
Tina
##bie
##ecraft
existam
Plantas
Ille
Angela
destruídos
Julião
atendendo
Direcção
reproduzir
Pampl
anatomia
vínculo
PH
Yellow
jus
##lc
##írem
##anjo
extras
Calcio
Aven
Loureiro
Inferior
ultra
isolados
uniform
fiscalização
vestuário
ingredientes
RM
##jando
depre
##entalmente
##emen
##atsu
Pain
Quarto
Corvo
Prazer
cobrindo
noturna
exploradores
trazidos
jurídicos
##cope
elogiado
vertentes
crust
Urban
fortalecer
Sagrada
óperas
desempenhar
Raven
prejuízo
Gulbenkian
FP
Pintura
Rotten
tóx
reafir
alianças
##essões
encosta
chamas
Glenn
Shell
detrimento
Econômico
Farroupilha
verticais
pássaro
Evolution
Shelley
Philosophy
Istambul
Bott
Viola
Vulc
láp
tour
vou
estu
##rasco
verificação
mineiros
Adult
catarinense
Bloch
superou
Chave
##ptis
emitir
gregoriano
Maryland
Ranger
Teresina
aritmética
##eachment
Rum
Símbol
lant
litu
##rões
##hava
##eville
Strat
##illes
Johan
Geom
vencida
operando
financiar
Brés
bandeirantes
bonita
carnavalesco
muçulmano
Evangélica
Apoio
Eyes
##uelo
##orização
##idia
##ocada
formavam
agitação
caíram
construindo
numer
##insular
parciais
##berga
mensag
Jacare
honras
dólar
festividades
rejeitado
Dominicana
decorrentes
indiretamente
Nasser
pulmonar
Dup
LS
Nou
Uber
Águ
##viano
##ecostal
perpé
Eslováquia
Conrad
subúrbio
Valadares
confirmação
##rocess
consolidou
antropologia
bastidores
Investigação
Foster
HP
Nurem
lido
##ved
##him
degen
Alz
##ibal
Conquist
agrária
voltadas
Trac
Mini
opcional
##gascar
##oldt
vocação
Linna
Playboy
lucra
enverg
perguntou
Titãs
incompl
Maximiliano
marítimas
plebiscito
Eb
Gis
Jesse
Zhou
tang
##íada
##mans
notou
maré
caatinga
celta
Luciana
Itajaí
fechados
Romeu
vetores
##uchos
Messias
álgebra
Léo
piscina
anexo
Cazaquistão
Vul
Viver
fração
sav
comissões
alvin
##rigos
conselheiros
adent
inferno
devidamente
Castanh
registos
##iocas
engenhos
Epic
cerimónia
Cidadão
Simples
Fior
Têm
Winter
oval
##bres
##roy
##rens
##orando
Carr
plateia
superc
Flam
Board
resultar
Danúbio
Belle
conservadora
fruta
relançado
Deutsch
Fish
##nais
copa
##icond
Geis
combina
Vilaine
acusados
correio
Systems
Sibéria
óxido
acidentalmente
incorporou
OC
Teb
pinheiro
##hense
##árez
emin
##rift
##urnos
jogava
produzia
nacionalmente
##lett
Constitu
##kien
Lucy
fixar
orgânicos
Sacav
silenc
eclod
Orleans
coeficiente
pneumonia
Pão
bala
##garo
##BR
quint
Comité
##positor
metropolitano
Davi
espaçon
Waters
telefil
incorpora
ilustres
Bernardes
possibilita
Hispânia
conformidade
Bess
Fado
Sider
citando
telhado
Estão
##aze
filant
capas
poderem
isbn
##umat
emprega
Medic
atingem
desfrut
Trabalhos
reforços
parentesco
munição
Vouga
Sindicato
bacharel
Juí
Rush
farm
sép
##nen
##icul
##enko
##ety
prolet
esmag
Oslo
carrega
minorias
Editores
Matias
povoada
montante
atrativos
disputando
arqueológicas
Lamego
Capitol
interrompido
saudável
Amparo
horror
Aaron
sir
##uj
##QU
quero
##ization
Emily
aborto
encur
instante
Luta
leilão
Calçada
Need
Interno
##viamente
Madri
Devil
analfab
Notre
pastores
Diar
Fav
Hut
Niss
Ríos
Sang
sérios
sânscrito
reúnem
escad
Leonel
metas
Prade
constitucionais
trocou
##ómico
Aquino
expressiva
ressurg
vilarejo
bancada
orquest
Lamiaceae
Lanka
autônoma
paradigma
Mongólia
Romeo
Favor
Pavia
Tower
Vari
##eh
##ück
##anol
algar
##orah
consistência
Barca
cobra
supermerc
roubo
imediações
sugerindo
Selv
pulso
cordilheira
Moldávia
doutrinas
Spl
pânt
sé
##log
##ínt
##úba
##ionava
desgas
anjos
comprada
##minas
Caminha
diamantes
poderosas
maxim
confiável
referidos
##orrow
Rego
oferecida
potássio
directamente
Julian
Cartago
Gardner
iP
##zt
##ecesse
exato
atrac
posta
cardio
Referência
Espir
montou
quadrada
##umbá
Condados
psíqu
Panzer
Philadel
assassinados
emitida
siglas
Heroes
extensas
Joyce
BMW
Episcopal
Fidel
Mav
TM
Tul
drag
viam
##bad
##altos
##ouse
perpend
contab
ard
Colomb
golfo
##duction
Schne
refrão
##nij
Bruns
##ESC
Lançamento
Valentim
Evolução
Jobim
tutela
ET
velhas
##tum
##IP
##ecto
expostos
##vea
Inquis
volt
Valde
mantidas
##racel
renuncia
##arangue
obtidas
estivessem
gramas
Crazy
aglomerado
operadora
Churchill
Arqueologia
Tricolor
dianteira
Industry
Aja
Bron
Less
cív
rót
##fu
##borough
davam
##atá
desma
##dora
incursões
conhecia
descentral
governada
Francisc
Salgueiro
Olavo
explicações
acabamento
justo
audio
democrata
mínimas
resistentes
testemunha
Cornélio
Aurel
Crystal
Madagascar
Masculino
Cach
Dino
Lenc
Missa
##franc
esperma
##ibo
falsas
##reves
golos
Loja
##orks
Volunt
identificadas
acusou
proprietária
##erbai
Naruto
vitorioso
Laureados
perigoso
Apocalipse
Peu
cultos
eva
##asy
##arco
##opol
Conrado
Concep
Palmer
galerias
militante
armamento
monumental
Quarteto
tempestades
prejuízos
Sarg
Yes
icon
##BOL
##anu
tratou
##oter
consistem
pole
##cole
Order
havido
maquia
diferem
parcerias
aventure
mecânicos
Poucos
preocupado
selecionados
consecutivo
racismo
esqueleto
desagrad
Doutrina
Pamplona
AFC
Cova
Darc
Hun
Hog
Kyo
peste
##nica
##xina
##zione
##gundes
##imba
##ocacia
abade
invocação
Frances
##ources
flut
Roses
detido
premiadas
eliminou
thrash
Defens
Orchestra
Villar
renascentista
Bub
Pret
gótica
misto
##írios
desmat
subsp
estudioso
sulf
golf
Mattos
##iella
batida
tropeiros
McN
Holoca
hiper
sugest
Longevidade
Produtores
majoritariamente
Mackenzie
Dulce
Consequentemente
reestruturação
mosa
##tida
##íola
Almas
impressa
consórcio
instrut
inventado
Money
Florida
concordaram
Butler
shopping
Faixa
Name
Rider
UTC
Zel
emigração
esto
##egger
##upp
contratar
maj
Herd
Indígena
Eventos
isoladas
Doctor
Formado
vulcânica
desejado
Severo
julgar
compreendida
Clarke
Informática
Eusébio
Bin
Cret
Morn
pureza
##ñez
natação
Sept
##neamente
lançam
levadas
expatri
leitos
Valente
basta
##agaio
bolsas
##argador
Amanda
Claudia
##urban
Feitic
baterias
veteranos
renovado
arcade
integram
Bloom
neurol
Nepal
Census
decolagem
Jedi
##uos
##adeiros
espadas
##azeiro
Queim
infanto
embr
##ímetro
domest
Julie
companheira
Mauricio
satisfazer
flexibilidade
Australian
Atuou
ITIS
Manifesto
Alabama
Iowa
OTAN
Oregon
Writ
fórmulas
##wns
##oré
##icer
dobra
##odium
dezenove
Andrés
nascem
Internacionais
dificult
namoro
consolidar
progressiva
##IDS
experimentais
irregulares
Strauss
budista
desprez
Pradexe
Lun
SR
##tan
##asal
##ndela
##nchen
algas
contorn
consentimento
camisas
habitualmente
tornasse
Anta
orientado
escalas
CPU
arrend
implantado
APCA
confere
##eneuve
Buda
Cune
Gren
MW
Pick
RN
Trás
saneamento
##kos
##heiro
##iae
gramat
##ertz
uniram
Atos
solucion
produziram
Verona
denúncia
retornaram
restauro
Bismar
incapacidade
Situada
subespécies
persuad
Gund
Wiz
deca
##quetes
indign
movido
Temple
gênio
pensava
bale
perdão
titulares
##árquica
comboio
Odont
UP
Vet
Zâmbia
##DS
##hip
##onio
##teau
colar
irrad
Raúl
##culas
circo
##urgos
devendo
Octa
Garonne
Walk
escalar
coordenador
Surin
remontam
embarcou
rodoviária
Cássia
##ycho
##pen
##sticamente
alerta
##ogramas
traço
paródia
oficina
iniciadas
veic
Contabilidade
Medina
destruindo
Paranap
premiada
Humanas
Village
Fourier
gratuita
proclamou
Alumni
Lars
Pug
##iabilidade
chefia
Nove
poço
Prel
convic
Isma
batendo
Balne
russas
Brasão
introduzidos
proibiu
abrangência
motivação
Culinária
Ordens
Duran
Bons
Crato
ka
##quê
profer
##toes
##obl
Alteza
##estial
Quero
Nauch
médicas
cated
Forbes
##ânticas
Infelizmente
cruzada
balada
dispostas
Todd
Etta
Golpe
aposentado
removido
##arrow
compreendido
penetração
Redondo
contextos
Creta
##dale
##erve
dolor
##guar
reapar
anjo
##mez
chif
Barroco
visava
importações
declararam
austríacos
batalhão
Hopkins
contribuem
Apostólica
Sacavém
Boss
Ice
Kais
##rd
##turo
##ignano
transações
Tempera
Masde
Oct
Alfab
Sabbath
Começa
canadenses
gostou
Sarney
Jordão
Gallery
erroneamente
decorrente
Eventualmente
cearense
Brem
Jin
Relação
Sons
VA
XP
##ск
indifer
canon
diversão
demorou
Belt
fluidos
interessantes
sensíveis
Burn
humilde
constituintes
Dario
Sexta
misterioso
vinil
riachos
absolutamente
opostos
##mia
##šn
##ópodes
fundamento
realizações
espécimes
projetou
sali
exibiu
querendo
drasticamente
Botânico
PSB
ressonância
presidido
portadores
Tarzan
intercâmbio
Bolívar
pólvora
moleculares
compensação
Touch
Sakura
Phillips
défic
Eliminatórias
Suriname
Nauchnij
Ain
Cum
Sau
dio
##feu
Chia
prestados
orelhas
existencial
variada
assistências
##itsch
sacrific
avançados
comemorado
sagrada
Villeneuve
virar
Guarat
caminhada
Vilas
Loiret
magistrado
submarino
Árvores
cirurgião
insatisf
dígitos
dicionário
netos
##fly
##cle
##iful
recob
prender
##inhal
distor
##unch
##vier
Segue
remoto
Escolar
Brother
Marcas
largas
Bangl
Austrí
baleias
quilômetro
vilã
agregado
experimentou
empreendimentos
excessiva
simbólico
lagart
paleont
porcentagem
Zeca
##asi
desinte
##azzo
##chis
presc
##ariais
Palace
##ilhã
autorizou
promotor
empenh
FIA
modernismo
Triângulo
fracos
aplicados
##potâmia
STS
culminando
protetor
colheita
Taubaté
Giac
Kom
NC
Vega
séria
tatu
##nologia
##arez
##lahoma
filmar
orçam
suprim
recebiam
Coritiba
sets
Starr
dirigindo
Fernández
Objet
Campania
pagamentos
abandona
Trinta
Gregos
aplicativo
demasiado
Dram
Jó
bapt
deposição
##icy
##ndel
##economia
trajes
##ianum
Comiss
Malha
botão
observadas
Jackie
celebra
conceder
resolvido
oxidação
PPP
Rondon
cancelamento
honoris
Pseudo
Gusmão
nít
view
óculos
espalha
amer
Expec
Mangu
classificações
Construções
exibidas
ampliada
Mission
Gramado
distribuir
Platina
válvulas
Happy
máximas
Hera
Rama
expostas
primitivos
colecção
Stones
Calheta
Capiv
aumentada
Christine
##erback
Arquitetos
plumagem
Riach
autônomo
orago
anarquista
Adobe
Mobile
dançarina
primordial
metabolismo
Development
Alliance
Hass
Kiev
Paca
mães
##öl
dotado
##eraba
##teve
##turou
postal
amigas
impeachment
usá
duras
voltados
##uíram
Regime
Causa
Duke
Benev
Newman
decidem
Possuem
florestais
Southern
precedentes
Ciudad
##ifolium
Symph
Kombat
Fala
Gert
Imb
Oito
PFL
Seria
Soft
Zh
enrol
##ilizada
épico
docente
oriente
documentários
azulejos
acessar
Shep
Messi
catalog
recomendado
explicitamente
Hide
Ji
fidalgo
lã
lógico
##idões
Mari
cheiro
chegavam
Universidad
estudando
Milano
paterna
Tempest
totais
##eirismo
exercendo
Helm
demonstrando
expressou
sucessivos
excepção
Tanzânia
Arou
Jour
Nathan
sinta
##Data
##LB
comend
##onf
aborda
milênio
Anac
definem
Mesorregião
prévia
Virgo
chamaram
telefones
Tolkien
reservatório
##estruturas
diferenciar
romper
Technology
jejum
Nirvana
Amsterdã
EB
Ment
hiato
nan
##night
##bc
##NS
##itel
##imus
cone
apartamentos
##luc
eds
Shir
##ragona
ervas
##ERJ
fechadas
Only
aleatória
descontentamento
desafia
Pittsburg
Vianna
TELESP
Ech
tardia
##fiel
##çanha
dente
##arat
estresse
##uradas
fila
antenas
estáveis
Plut
imenso
caracterizam
Constança
##wait
Too
Finist
Terminologia
Granja
argentinos
assemelh
Oklahoma
cosmona
intermediária
bombardeio
Bever
Sargento
Trum
cib
##vert
##igue
Adap
deixada
liberdades
quadrangular
fluxos
Recording
controlados
sobrevivente
presidiu
sexualidade
frentes
joelho
mártir
Nigel
montanhosa
atlântica
marginal
Kru
Passe
Sult
fará
porções
##hae
##avos
arterial
Camila
Alej
Acont
gravando
currículo
##kawa
Holt
Lutero
Drake
##ívoros
humorista
embaixada
Advance
Ártico
Masdeval
Hei
Rhe
bós
ce
candomblé
##çava
##raw
##islau
##ilmente
apênd
entrado
antibi
Chant
##ranos
Sequ
Management
Trapalh
projetados
turbo
Blog
favelas
Fagundes
presidida
##espero
Havana
incompat
ícones
plasma
vertebrados
detetive
ginasta
Fru
Gia
Hess
opositores
##mir
##çara
##idiu
##itantes
##icata
livrar
Bauru
completos
Groen
Rebelo
intercal
Publicações
paviment
agrupamento
Administrativa
Eurico
Patriarca
transtorno
Masdevallia
bate
ninhos
ved
##nu
deduz
##iland
##ethe
desper
##ersch
##raverm
inflamat
##bow
Cool
aviso
Blind
Build
sedimentos
judiciário
bonito
Gotham
SIL
bíblico
Gött
heroína
ansiedade
atmosférica
Gemin
lama
pit
##xis
##óvis
##orão
##antado
fileiras
climas
corredores
##grafos
conhecem
##aixões
Quím
##enheim
estreitas
Generation
procurava
exigem
criticada
Cavalo
Somália
agudo
Horácio
Broadcast
sesmaria
Mesopotâmia
Máximo
Avia
Intend
Lola
tím
##érigos
##orio
atômica
forçar
Anast
Amigo
Sten
desenhar
Paraib
Desenho
propósitos
Boêmia
arquiv
Martha
Peñ
Mother
acumulação
Diversas
promulgada
Zezé
expatriados
Morto
Trig
aro
rif
##craft
##oi
##beck
congress
contada
##ibar
parecida
assessor
Argu
cheias
##neas
instável
Verdes
desequil
Letter
magnética
Beau
compromissos
terrorista
Rebelde
plenamente
evangélicos
Gad
Jol
Juntos
Kil
Nom
Pana
Vision
dir
##sse
alven
amadores
passap
Parc
seriamente
Araraqu
destruídas
celebrações
residir
sufixo
indireta
simpatia
conclusões
amadurec
CAS
Vand
##vente
##ernamente
locutor
indisc
##ught
##ells
una
localizar
diversificada
Moinhos
demônio
Tereza
Suic
Doenças
arquitect
confirmar
England
Wake
desportiva
estendida
imobili
antepassados
##nchez
Aw
Dere
lap
lava
pix
##orá
##rete
entreg
filial
extrav
##ômetros
##ênix
geologia
geográficos
gerados
Azerbai
Curtis
fixou
fugiram
debat
desaparecer
Oficina
Tobias
Deutsche
Bismarck
NT
Pip
Yam
geram
##cópio
##Mania
##olph
##oniais
estranha
aberturas
diretório
Temer
FFFCC
Doom
Dourado
##ulli
listados
desconhecidos
sujeita
pulmão
projectos
Lugares
Anatólia
Diferentemente
peregrinação
Tomatoes
mongóis
Brizola
Cão
Oil
XML
corn
pH
urina
##lé
##entores
exista
##iflor
espionagem
compuls
##ianus
enfor
Read
##feituras
##ópica
diamante
afog
##tore
Assistência
##ógios
saído
Prefeitos
advert
favoritos
atrapalh
exercida
Pierce
carroc
pecados
Annie
virtudes
protegidas
Figueirense
Aventura
Igor
admissão
##isciplinar
Bé
Dunc
Fura
Nú
SM
túmulos
##kis
##SI
##jal
iner
##ioni
intest
subjug
Glad
resultam
crescem
##eterias
Olivier
Australia
Dourada
desfavor
Jeremy
microf
Diretoria
islâmico
Ademais
ingestão
Princípio
frágil
Eça
Ll
Vez
Vie
##haram
##inários
positiv
##colo
modificar
##phyllum
Montgom
determinante
Serge
Famal
gravadoras
ceder
possibilitou
Candid
Científica
Wolver
Emilio
Maçons
luminos
Petrobras
Vilhena
AIDS
Piloto
Sna
ts
##ânde
##amentais
##quila
alf
##andarte
Deodoro
plásticas
Clóvis
Iss
Montal
Daily
aceite
ameaçada
detalhe
afetar
Nièvre
Guitarristas
refletir
flexível
Meirelles
Philadelphia
Crem
Hä
Más
RB
horizonte
##rário
depress
##ulina
##ather
Escand
orla
##uron
criativo
apoiando
alcançada
psiquiát
Toulou
Christie
Sainte
Januário
##ikawa
vinculado
Covilhã
Anatomia
Brist
Have
non
##Cl
##ôver
Estoril
recurs
Comba
enunc
carval
occ
Amália
Make
retal
Aleks
confisc
internamente
eterna
Recopa
##rival
operam
juntando
pintado
colaborar
automot
Hyptis
prolif
Destaca
quebrando
resolveram
Abraão
privatizada
consoantes
óssea
Stevens
Pittsburgh
Bres
Deu
Gym
Xing
fem
lot
nona
##ciados
##esi
##hov
apanh
espeta
partem
##gow
Stro
intervent
##ixa
##ópios
##ilizados
socorro
Mangueira
repúblicas
leões
penit
pacífica
divulgada
gaúcha
haverá
panorama
Publicado
Crianças
integralmente
gratuitamente
Mansell
riacho
Dada
Hope
emenda
##riar
primariamente
Reinaldo
Cars
polos
maioritariamente
separat
revoltos
Mercúrio
licenciado
sábados
Últimos
Lencastre
Famalicão
Gob
gla
Áreas
##tador
##ulhas
##ensen
verbal
Moac
limitação
bottom
cartaz
Gross
viajando
Cambo
adicionou
cancro
germânicos
Coburgo
escocesa
escapou
Drummond
Esteves
Dend
Peri
SL
##bur
##omon
##iffe
arras
Strange
Stutt
##iológicas
constituídos
virgem
acompanhados
provocada
objecto
funcionalidades
Dolores
Viníc
ídolos
Guarulhos
tigre
substantivo
tristeza
iminente
Cássio
Kei
Sust
riv
##dan
##hall
##urá
trato
##issores
Rainhas
Itamar
Scient
heráld
Serpa
##ufl
artesãos
provocado
Eugene
acordes
vinculada
privilegiada
legitimidade
ecossistemas
ffdc
barbearia
Picas
Zorro
cinturão
fumo
##bít
reut
##ingá
escuras
resumo
interl
Atta
isóto
Edwin
Neer
tenor
aconteceram
##ranger
adotando
sinalização
conceitual
maced
Transm
Ronnie
Brejo
portador
Server
transcend
Humboldt
perigosa
Bitt
MEC
Río
Unc
##uia
##uve
##emens
paraguaio
##istana
apod
##uble
##estável
inflamação
##ístola
avós
Spect
Shi
montada
lideranças
modernidade
impedido
Hamlet
espiritu
Kew
Hanôver
combustíveis
anarquistas
vértices
progressão
Göttingen
Bala
saz
##kas
##UM
passadas
descans
App
Att
consideraram
Placar
##iquem
incorporar
metab
Raposo
videoclipes
ramal
Copenhague
otomanos
Uberlândia
Neve
gatos
##teca
##ieira
##igar
##edido
partiram
decap
subjac
poet
mate
sucede
Japonês
##olds
Serrano
custou
esquecer
##ietz
estatutos
##íssimas
sediar
autoestrada
stand
Dramat
IPHAN
implementado
Mamede
##árquicas
Corrida
obediência
denomina
ilegais
Intermediária
Stuttgart
Hél
VC
Vamos
bass
cais
##ège
##icius
##atis
##ating
esma
##pond
Combat
passeios
indetermin
##inhar
causaram
aquáticos
Roda
Miles
##iji
sustenta
caçador
Wesley
nitrogênio
Dros
Jude
SV
TH
har
mentor
sarc
##PO
##arado
insegu
espinhos
centrada
cinética
morou
quarteto
dublado
Denise
consistindo
biológicos
funcionalidade
##úneis
verbos
Styles
unanimidade
Toulouse
Nina
##nera
##iáveis
##ulano
##uladores
##eradores
prove
contabilidade
Estácio
Alp
##udi
Lenda
turca
Poemas
legiões
Metod
amarelos
subsídios
Apresentadores
Velocidade
Greenwich
Teodósio
Recreativo
Rodoviário
meramente
bicicleta
Teorema
Linnaeus
Derek
Caram
IUC
Lod
Pion
belos
sino
##caras
##írico
cometer
##enbach
contáb
##vend
abadia
##udas
Consegu
caminha
descrit
Antas
Universidades
referencial
Shō
Histori
percorrer
massac
completas
macaco
justa
Ruby
configurações
concebida
fascista
Nickel
Normal
budistas
Conhecido
admite
fornecedores
Eagle
##CarreiraComeço
Época
Imaculada
Montgomery
APG
Gerar
Kab
Kamen
MIT
dó
finas
satura
##fel
##jador
##iders
Chã
concorda
caças
Castle
Teófilo
##anex
procurado
obrigada
Murilo
Mostra
narrativas
##oncé
germânico
Saudade
combatentes
eletromagnética
Dresden
Byr
Kens
gasto
##itanos
##ilio
conecta
alimenta
##agram
prevent
relemb
Corumbá
Mask
##ysis
Nothing
Humana
aliás
Ruiz
Empresários
suspeitas
apaixonada
Vinci
achados
regulamentação
bovino
Método
etimologia
Araraquara
Jag
Sess
Urg
roch
##eman
##nor
##fr
##ght
##doria
##esh
##inato
##oureiro
esl
##opf
##onti
Alvorada
recorrer
Expo
criativa
barrac
calif
detinha
prefácio
Futsal
Versalhes
Antártida
Indianápolis
HTML
incerteza
Brom
Cár
Jub
Jump
Lemb
Ud
cef
lomb
míssil
orat
##ficação
##mático
##GP
##aneses
suínos
##erase
##ícolas
Carbon
infraverm
caut
Corunha
Bak
Importa
versus
Romances
Garrett
roteiros
Menina
Helio
concentrações
Nicole
farol
encerrado
Sánchez
##petor
eficientes
escondido
Sétimo
Emancip
##eladas
##eiger
umb
congregação
##rime
regimes
##inhão
Pedreira
Silésia
Chapec
sexos
rebanho
Samora
obrigando
molus
DVDs
ilustrado
encerrada
Gênesis
droga
privilégio
Diploma
indenização
##critic
IUCN
Cric
Lund
Sora
Soph
##viais
##orros
acho
destin
Depe
torná
Graf
botões
coloridas
dinâmico
intensamente
buscam
Formoso
defendido
indicador
Licenciatura
Irmão
Publicou
Rivera
Cidadania
Educacional
decomposição
Ipat
Pog
lente
ritos
Érico
##eleira
##igs
incub
presta
encomenda
levá
Valério
barriga
autorizada
Angels
potente
reduzidas
Alfonso
efetuar
##hadoras
defendida
Pasco
Juniors
calcário
alvenaria
Dale
Kot
Redes
Sit
Wer
gest
tida
##çais
##agin
comprimentos
Aldo
##ciou
pour
melhorou
Trade
arquidu
oferecia
revelam
demandas
comandados
Vozes
Claus
dublador
quebrado
##fariz
cubano
ornamentais
submarinos
ombro
póstumo
Secundária
PB
cebol
sar
##Cube
##ácon
injeção
muc
escrava
amada
Anhan
matá
Baron
manuais
objetiva
Matemáticos
georg
eliminando
Murder
educador
##graphy
endereços
Metacritic
Tamand
Vim
põe
##fred
##féus
##ceu
##antis
contida
Esteve
Cardeais
retrospec
Perm
controverso
Superintend
mágica
pintada
fundamentalmente
preservados
Papel
Inspira
nobili
objectos
clandest
WrestleMania
Budapeste
Ida
Pis
Als
Marisa
consul
jogaram
Quant
Maya
Exist
##ikov
quadril
adota
Pear
mecânicas
Gerhard
psicológica
##anthera
gastronomia
Criminal
entendidos
consultor
sociólogo
proclamado
translit
Purple
##ograficamente
Cerc
Lácio
Lunar
Wit
##rone
##ioides
escudos
destrói
Theater
Barre
feat
##angelo
genro
permitida
ergue
acontecia
Berm
XXX
matemáticas
Navarro
##ríns
Kirby
potencialmente
reformulação
Tarragona
medicamento
Sherman
Espírita
Asiático
Parlamentar
Horr
migrantes
ºC
##xer
##unge
reche
Paio
interest
proclama
embarque
French
Domen
revelaram
Voice
exclusivos
repetidamente
suspensa
caminhão
Vilela
compatíveis
Feminina
aglomerados
pastagens
visualização
avermelh
RIAA
Cuneo
Húng
cadas
für
##zza
##icha
Compre
adiant
##ordes
especificações
solene
ilusão
Pedroso
limitados
corporações
##alhistas
Palmares
navegadores
brincadeira
bonitas
Beyoncé
catalis
Cascavel
##rassem
asiáticos
idêntico
simbólica
motocic
contracen
Metallica
Huma
Lip
Sv
odont
velas
##icta
##apia
intrig
##iose
abriram
##illi
legu
Gloria
genu
substituídas
Rocky
madeiras
enxofre
córregos
conjuntamente
fraqueza
Brat
Cz
NE
Zone
key
vaca
Ética
##bilis
##world
##erá
##sten
##restes
Estônia
##coli
flav
Taip
Presente
##ígono
##ylis
Galileu
Ocidentais
Subs
Chef
##guaios
biom
Convers
Lopez
recusaram
inovador
batalhões
##igiene
subdividido
irrigação
guerrilheiros
Bielorrússia
Bérgamo
dr
hél
confort
impac
Chão
Conan
recebidas
Flem
Flav
Plate
saldo
saltos
Report
feridas
Mald
pensando
tecnicamente
colorido
##ESAC
disposições
transmite
repetiu
soberanos
convocação
Beautiful
Baptiste
Suzuki
donatário
Inclui
Provisório
melodias
Mondego
hegemonia
Ajax
FB
bif
##orus
##inum
##eless
inacab
atômico
##enciamento
Trag
colocaram
escreveram
Holland
sucedidas
melanc
perfeição
Irmã
automobilismo
Nikola
Animation
Coral
Recreativa
Euler
Coordenação
Brabham
fumaça
MVP
sépalas
Tsu
Uga
Yas
##uria
inundações
prisões
impôs
polím
subindo
##itarismo
continentais
visitada
Regente
descobrem
terciário
Consiste
##ácara
equipados
observadores
ocorridos
Ibira
Kirch
Fuj
coreana
impossibil
caçula
Anglicana
bicampeão
IGN
GS
Hiro
Pina
Pian
Stop
Tho
mid
sog
xx
##vski
##ulfo
##iasse
Alicante
pontu
batidas
ministra
esquadrão
##jecto
Maiores
ilustre
predominância
terrorismo
clínicas
extraordinário
tardio
Sophia
neutralidade
eslavos
Díaz
comendador
Cogn
Drey
FG
Pisa
ema
uva
##âminas
##arões
coca
##sted
##ulava
mutantes
##ibu
Conj
chocolate
##ugg
Still
##geot
Valencia
##banda
##ífice
Comuns
percorr
futsal
Aquiles
despertar
acessado
Bullet
Creek
rompimento
Tubarão
têxteis
Marilyn
Bristol
Rece
Zi
bando
túneis
vern
##ан
##úvio
covers
##rika
##ítimos
Stern
Quel
poços
Desert
feitic
lep
Casamento
##ffa
Caça
limít
##ylon
renal
protest
fixos
recuperado
Joaquina
Sonhos
Player
GameCube
##úrgicos
Pomer
Ocupa
Máquina
videogame
Frades
Khal
lembrou
##ст
dans
##olio
enum
Another
##ichte
Outono
Repert
característicos
Prepara
Provavelmente
##izarro
influenciados
question
reservado
globais
veneno
comparável
pronunciado
pernambucano
locomotivas
Aprend
Anhanguera
Beijo
Fib
Gé
Hann
Ora
Zu
ás
Marl
modelagem
pintar
Višn
temperamento
Rosen
trazem
Julius
correspondendo
Juazeiro
Cosme
API
Sciences
album
férrea
##interrup
Ferroviário
Herzeg
triangular
Aéreas
UESAC
xi
##rón
##cãs
##elou
##ramos
Marion
Maringá
##ranhas
Reinh
main
dispunha
Lama
Monroe
Escal
Loures
Influ
Shawn
eliminados
Judá
bonecos
fragment
Pinus
neerlandesa
Pantera
horizontais
misteriosa
nórdica
Queensland
bissexto
Dais
Hack
Pól
fu
##wyn
##émia
gray
agar
plásticos
infanta
Maus
caído
utens
divis
matríc
Coast
Casino
Perez
demônios
latinos
ers
errad
quantit
pagou
##ómicas
Homero
fixado
vestir
incorporados
longevidade
##rudência
privatização
Hampshire
Cros
Cinc
Earl
Yak
ido
multa
piro
##erge
##acena
osc
##izu
##ramoto
period
Cary
Separa
negrito
gravuras
Trajano
Gota
mosteiros
Alberta
ampliou
complemento
compreendendo
arrepend
antropônimos
estranhos
remanescente
Otaviano
vulnerável
Curiosamente
crustáceos
Cres
Cél
Fênix
Rancho
##eiriz
##ants
desdo
##ubishi
Joey
plástica
baiana
##ological
inventou
levante
Glen
moradia
Palmela
Motors
Independent
convencido
desaparecido
líquida
ultrapassou
dorso
programado
borbol
metálico
miséria
preparo
Taquari
Rousseff
Evangelista
vôlei
Respons
Azerbaijão
Igl
Kunt
drum
mega
##rote
##inadora
##elinha
doses
imposição
noventa
polig
tornarem
Antí
voltam
Grau
treinado
destacaram
Fundão
Sobrinho
mencionados
aposentar
Uttar
idêntica
seminário
culpado
Progressista
predomina
Boavista
Cil
Perto
Tic
cip
morc
##ament
##oléu
Carc
concorre
originado
expor
miniatura
##rops
Thou
conseguinte
Freedom
Bennett
##vamos
separaram
ajudado
afirmações
analogia
mobiliário
subordinada
estendia
biológicas
filosóficos
amazônica
Próximo
adjetivo
curioso
telefilme
Duncan
Picasso
mir
sr
##eduto
ininterrup
desob
##ogie
##essado
novidades
vergon
##íficas
##yah
sucedendo
demonstram
COM
Otta
Satur
Leslie
topografia
consagrou
homenagear
Checa
preconceito
severamente
vizinhança
Peugeot
Aver
Brum
Cic
Dina
Eco
Fuzil
bên
##center
##ées
##ádia
##jima
imposta
impostas
prestou
##endido
Quin
##illan
falecida
criações
assimil
Bene
##eirinho
streaming
##ements
Civilização
Romão
afetada
pulmões
órbitas
traseiro
medicinais
montanhosas
Elton
NP
Tud
##onais
##atados
##ogista
acções
Esparta
comunica
Novamente
Manga
repass
Andorra
talha
##ampton
dominicais
esperanças
respeitado
panor
estendido
cometido
sapatos
metálica
alinhamento
mongol
criptografia
Mitsubishi
Gemini
BAR
Tyr
Where
air
aero
cera
##írica
defeitos
##rep
estelar
pronta
##lea
invol
apla
##ogy
acasal
deviam
solitário
ambul
##ipot
etária
reconcil
##imentares
Chand
greco
Imag
preparada
confirm
Satan
constituinte
##hrer
incentivar
elegante
reivindicação
abusos
nêutrons
Mö
but
crocod
puls
##rove
noivo
##etton
ester
apara
Rex
indução
##ólise
##orriso
deixava
projetar
Taka
favorita
castanha
tributos
tomam
conduzida
impressionado
alegações
cache
acelerado
Craw
reconstruir
ocorria
Ardenas
Canadian
Fug
Gaza
Nine
RF
fundações
##rinhos
alag
##ndebol
acost
escada
elaborou
Chu
##ésias
monitor
Internaz
socialmente
galinha
Araç
Infância
Cantor
##única
Susana
Communic
Gastão
acrônimo
Triunfo
Patricia
Arouca
Aum
Dé
Forn
Klaus
Obl
##cz
deton
coex
##iografia
##uridão
##ingrado
filip
assembl
Progresso
institutos
reto
##iológico
reviv
Gear
Federation
Benito
licenciatura
firmou
preferem
desnecess
decretou
ecossistema
Punjab
wrestling
Together
Fasc
Poc
RBS
binária
eco
fing
ficasse
megal
otomano
##apé
Alam
elege
choro
milagre
irlandeses
medições
negação
Plot
Será
fornecida
Someth
secretários
submeter
auxiliado
Holocausto
Crom
Javier
Present
cist
##time
##wana
seduz
Osasco
concede
metropolit
irrev
factores
aceitas
fornecido
Holy
instrumentista
Piet
Pernambucano
preferido
economistas
operário
pleito
Brooks
Caroline
##plasma
Uberaba
feroz
Plutão
Višnjan
Herzegovina
gro
reativ
##sex
Alle
reggae
##astra
Change
##bles
decretos
guaran
##uía
somos
litúrgico
Gond
##FFF
Monter
mercadores
esperavam
Faial
Celt
adequadas
perseguições
plantação
brigas
Hawk
Léon
prosseguir
Rodoviária
radialista
revoltosos
Vinícius
Longa
nôm
pup
pimenta
##quino
esposas
prever
##ustro
indese
médios
Palestra
Federico
Julieta
tomate
Honorário
proporcionando
rompeu
martelo
cessar
prematura
Internazionale
Mia
##jó
##ischen
forno
Porque
Amador
##fefe
devemos
##ênica
Dawn
romantismo
Resident
Station
sensores
Watch
Petit
Honório
##MET
temporário
manifestou
Invasão
Saddam
cis
fich
kW
íris
##cionar
##há
##uh
##west
suma
proíb
##ugn
Ames
Boom
inauguradas
linguístico
balanço
Atlântida
Philipp
Arec
acessíveis
ilustrador
bancário
Ursa
Percy
Explor
VHF
Ângela
óptico
Winston
Ventura
estímulos
antagonista
Towns
Bren
Bíbl
Kind
Punk
Send
Tall
Zab
ciú
##lut
##oceno
injet
##aph
actriz
cata
##ónima
homogê
##loa
Tax
aproximou
afirmaram
justificar
sensual
biográfico
##stemon
rejeitada
acrescentando
disponibilizado
Segóvia
rígida
Schneider
Fon
Pinho
##uana
##óias
##adio
##iser
estrate
polu
##anced
##ratização
iniciados
Ilhéus
combinada
Individ
homenagens
ampliado
germin
Timó
preparando
Romário
traduziu
conversas
compartilham
Cecil
norueguesa
Marcelino
Automóveis
depoimento
Qing
Torr
Utar
cran
##iriz
##únd
##entamente
portado
disf
clãs
relógios
Espect
especulação
##coni
Luft
propulsão
Adal
deline
castanho
RedeTV
dissidentes
artesanal
cartagin
lembrando
durad
perseguido
afetam
intend
fascismo
enviando
Monsenhor
condecorado
Aproxim
insatis
renomado
##icatriz
Moscovo
##heimer
##iocesano
Jakob
Avenue
Ipatinga
Nim
ONG
Rik
Skin
Vem
Vinte
grid
luto
##aduto
##arazzo
desanex
##astic
captação
Quit
##ofredo
Elisa
Salz
mantinham
referiu
Metropolit
Cantal
Sabug
modernista
Participantes
Champions
lavouras
Fisher
ARENA
Ashley
acústico
Mauá
feriados
insistiu
Alejandro
Timóteo
Pett
Price
gestação
##lado
##dá
##rab
paraíso
##lair
pretor
##plin
Chlor
populacionais
Stella
subúrbios
##ayern
Moeda
caracterização
tentado
crescido
facilitando
ameaçado
avançadas
##tumamente
fantasias
conectados
Rice
Race
TS
hat
sider
##iças
##raf
##nton
pelot
##orações
##peta
antologia
##ceph
Assum
palestra
Centros
apogeu
musculares
##leton
pensadores
custa
Barbacena
artesan
Meridional
Andrews
bordas
Tibete
Inicia
Mortalidade
sílaba
despeito
Gómez
Holandesa
Cracóvia
Dad
Grad
Gates
Verc
Xadrez
lâminas
teses
##mu
##arma
##ncora
proposição
jogadas
##ucc
pond
Carlinhos
eterno
Indy
assumiram
Belgrado
tocaram
precisavam
Bolson
paralelamente
absorver
evidencia
ecológico
Trevas
Edmund
Jardins
Extremo
cláusula
Symphony
Lino
##tórias
##dias
##ños
##ener
##ulis
Marca
maiús
bail
ambição
ilíc
Geográfico
realeza
colocam
oriunda
neol
Justice
tecnológicos
certame
Psycho
adicionando
##erbayern
Dorothy
cineastas
demitiu
voluntário
preparou
Reconquista
##adolid
hindu
Farmácia
Ond
Vell
binário
##UB
##idon
##arana
##quec
Inov
relíquias
historia
equator
Eurov
iniciação
Sunday
Mason
docentes
##pector
sexualmente
rapidez
Faith
vemos
draft
Circo
tubarão
adicionada
cinematográfico
prolongamento
réplica
vitoriosa
Yamato
Experimental
flutuante
Gate
Kri
NS
Nol
PNG
Trom
cego
pânico
ste
##jord
##itividade
doado
cors
Acanthaceae
embut
Andro
sabiam
organizacional
pretexto
torcedor
##áceis
impressões
térmico
Pueb
Jeffrey
Lindley
##oncelo
provisória
Cronquist
Ditadura
tcheco
promocional
GE
Smas
Vive
lade
vamos
##adinha
##imão
##imiro
estagn
##eball
Chief
nomeações
infect
##illas
atualizado
Adem
leal
finito
Pref
cartunista
Basquetebol
empreendedor
Penafiel
hardcore
agressivo
tambor
tartarugas
fenómeno
desgaste
JK
Kit
Nit
Nível
Rever
fadas
rito
##dão
##éritos
coer
alturas
aparecia
embosc
pediram
monof
faca
##river
promessas
##perma
Homo
Richmond
Hammer
hospedeiro
Paranaguá
labelo
envelhecimento
metafísica
Meteorologia
Diamantina
Bréscia
desmatamento
Dry
Kyle
arom
ratos
##ívia
##atão
##uts
##etil
##ifo
##chys
Ark
afinal
Orden
falante
Aba
Bau
##ílson
aquático
estadista
Livramento
Escrito
Mexico
correl
aprovar
aprovados
##lingen
espectáculo
Limeira
Escritório
judaico
Eugen
mobilização
Báltico
Ludov
Hearts
Lages
Perspec
àquela
útero
##een
##dona
##omena
perdem
##heed
Atalaia
Goiano
basílica
parceira
guitarristas
Syn
viável
garantias
assassinos
licenças
Ferrovia
estimação
desconhecidas
Bagé
inevitável
anticorpos
Glasgow
Jânio
Kush
Tadeu
náut
##jer
##ôr
damas
##ulh
conglom
Luca
teleg
referia
Than
situava
##rives
reconquista
Scorp
Cristão
Mediev
remaster
Gregory
bytes
cultivada
Kuwait
bíblica
Kön
Mágico
ascendeu
diabetes
desvantagem
Hitchcock
sintaxe
Dru
Tana
Zico
babil
fáceis
saco
##rh
##DF
ques
insol
papas
Valois
imigrante
Path
geológico
##íbas
universais
adaptadas
experiente
Letônia
Renânia
escopo
intervir
CCFF
manipular
escoceses
lightgrey
Eryth
Til
ist
vec
Ém
##OP
##inet
##quara
##rese
escadas
Unida
mesas
##ácias
Revistas
preparados
Cerco
Ramal
Junqueira
Derro
##úrgicas
##atures
Diferente
marxismo
condicionado
confederação
Macaé
empossado
mandíbula
Nora
Vag
fric
gospel
##nier
##Ar
##jana
Alen
Carreira
##ínico
Santíssimo
caule
##mark
##marias
Occ
Dourados
reduzidos
previstas
abordagens
dimens
recusado
PCB
requerem
explosivos
Akira
Posição
Ptolomeu
espontânea
léguas
begin
enforc
Kr
Pista
Pard
opostas
ítalo
##tinga
##idências
##américa
pelagem
desespero
Compost
##ench
subgên
##gaço
Proença
##vić
Seguro
##ilhada
Avanç
Beh
Distribuição
atacando
portão
resistiu
Derby
convertidos
subdivisões
segredos
idênticos
ocorra
distribuições
comissário
neurônios
Torcida
Sônia
Wed
bir
ft
rud
##pis
##alor
##lendor
peles
colunista
usurp
verificou
bata
Mafal
vols
Pride
##nox
Plac
Loulé
combinados
dominou
dominantes
##acao
deverão
matrizes
cronologia
Jamie
dinamarquesa
Sharon
adjacente
corrigir
NHL
ESPN
preliminar
Aug
Icon
MAC
SAN
##pton
##born
##oniano
Altam
regressa
Amade
baile
##neo
Descon
retórica
muscul
latif
Beast
rodar
identificou
##escob
##CAF
Fabric
concluídas
Radical
Kaw
Butter
dedicando
cometeu
jardas
prosseguiu
preencher
manifestar
Becker
UFRJ
Husse
Io
Pind
Panteão
games
##ykh
##hma
coura
##idence
##estradas
Carmel
Coluna
insere
marcadas
##piração
Rosal
extraído
incorporando
Bomba
adequados
##ything
Oswald
Rowling
aperfeiçoamento
aminoácidos
Dependendo
Bolsonaro
Lage
Narc
Yuri
Órg
##item
##emer
Arta
polaco
##isses
Promo
##uações
Leaf
altares
Lauri
epít
Goethe
tect
Louvre
adoração
##iliadas
##tsu
Fabrica
recusar
Siena
portátil
emitidos
[...]
